{
    "version": "1.0",
    "truncation": null,
    "padding": null,
    "added_tokens": [
        {
            "id": 0,
            "special": true,
            "content": "</s>",
            "single_word": false,
            "lstrip": false,
            "rstrip": false,
            "normalized": false
        },
        {
            "id": 1,
            "special": true,
            "content": "<unk>",
            "single_word": false,
            "lstrip": false,
            "rstrip": false,
            "normalized": false
        },
        {
            "id": 62517,
            "special": true,
            "content": "<pad>",
            "single_word": false,
            "lstrip": false,
            "rstrip": false,
            "normalized": false
        }
    ],
    "normalizer": {
        "type": "Precompiled",
        "precompiled_charsmap": null
    },
    "pre_tokenizer": {
        "type": "Sequence",
        "pretokenizers": [
            {
                "type": "WhitespaceSplit"
            },
            {
                "type": "Metaspace",
                "replacement": "\u2581",
                "add_prefix_space": true
            }
        ]
    },
    "post_processor": {
        "type": "TemplateProcessing",
        "single": [
            {
                "Sequence": {
                    "id": "A",
                    "type_id": 0
                }
            },
            {
                "SpecialToken": {
                    "id": "</s>",
                    "type_id": 0
                }
            }
        ],
        "pair": [
            {
                "Sequence": {
                    "id": "A",
                    "type_id": 0
                }
            },
            {
                "SpecialToken": {
                    "id": "</s>",
                    "type_id": 0
                }
            },
            {
                "Sequence": {
                    "id": "B",
                    "type_id": 0
                }
            },
            {
                "SpecialToken": {
                    "id": "</s>",
                    "type_id": 0
                }
            }
        ],
        "special_tokens": {
            "</s>": {
                "id": "</s>",
                "ids": [
                    0
                ],
                "tokens": [
                    "</s>"
                ]
            }
        }
    },
    "decoder": {
        "type": "Metaspace",
        "replacement": "\u2581",
        "add_prefix_space": true
    },
    "model": {
        "type": "Unigram",
        "unk_id": 2,
        "vocab": [
            [
                "</s>",
                0.0
            ],
            [
                "<unk>",
                0.0
            ],
            [
                ",",
                -2.8664350509643555
            ],
            [
                ".",
                -3.565607786178589
            ],
            [
                "\u2581the",
                -2.717104196548462
            ],
            [
                "\u2581of",
                -3.1531500816345215
            ],
            [
                "\u2581\u0432",
                -3.5094590187072754
            ],
            [
                "\u2581\u0438",
                -3.491670608520508
            ],
            [
                "\u2581and",
                -3.487863779067993
            ],
            [
                "\u2581to",
                -3.64593768119812
            ],
            [
                "\u2581in",
                -3.989541530609131
            ],
            [
                "-",
                -4.801599979400635
            ],
            [
                ";",
                -5.654314041137695
            ],
            [
                "\u2581a",
                -4.525119781494141
            ],
            [
                "\u2581(",
                -4.932703018188477
            ],
            [
                "\u2581\u043f\u043e",
                -4.5150628089904785
            ],
            [
                "\u2581\u0441",
                -4.582431793212891
            ],
            [
                "\u2581\u043d\u0430",
                -4.505119323730469
            ],
            [
                "'",
                -5.75400972366333
            ],
            [
                "?",
                -7.332771301269531
            ],
            [
                "\u2581for",
                -4.5960373878479
            ],
            [
                "\u2581",
                -5.339776992797852
            ],
            [
                "\u2581that",
                -4.718591690063477
            ],
            [
                "s",
                -4.96660852432251
            ],
            [
                ")",
                -5.236989974975586
            ],
            [
                "\u2581on",
                -4.7110676765441895
            ],
            [
                "\u2581\u043d\u0435",
                -5.250152111053467
            ],
            [
                "\u2581-",
                -6.691068172454834
            ],
            [
                "\u2581\u0447\u0442\u043e",
                -5.145421504974365
            ],
            [
                "\u2581I",
                -6.569737434387207
            ],
            [
                "\u0435",
                -5.119911193847656
            ],
            [
                "\u2581&",
                -9.736132621765137
            ],
            [
                "\u2581The",
                -4.944612503051758
            ],
            [
                "\u2581you",
                -7.445719242095947
            ],
            [
                "\u2581is",
                -5.225485324859619
            ],
            [
                "\u2581\u043e",
                -5.183387756347656
            ],
            [
                "\u2581be",
                -5.2064433097839355
            ],
            [
                "\u2581with",
                -5.219259738922119
            ],
            [
                ":",
                -5.885786056518555
            ],
            [
                "\u2581by",
                -5.160669326782227
            ],
            [
                "\u2581\u0434\u043b\u044f",
                -5.292817115783691
            ],
            [
                "\u0430",
                -5.727468967437744
            ],
            [
                "\u2581\u043a",
                -5.446985721588135
            ],
            [
                "\u2581as",
                -5.295055866241455
            ],
            [
                "\u0445",
                -5.520083904266357
            ],
            [
                "t",
                -8.412166595458984
            ],
            [
                "\u043c",
                -5.555218696594238
            ],
            [
                "\u2581it",
                -6.023537635803223
            ],
            [
                "\u0439",
                -5.754673957824707
            ],
            [
                "\u2581\u0412",
                -5.510373592376709
            ],
            [
                "\u2581was",
                -5.727376461029053
            ],
            [
                "/",
                -6.176279544830322
            ],
            [
                "\u2581\u0437\u0430",
                -5.8862738609313965
            ],
            [
                "\u0438",
                -5.904855728149414
            ],
            [
                "\u2581\u0433\u043e\u0434\u0430",
                -5.591809272766113
            ],
            [
                "\u2581are",
                -5.768064498901367
            ],
            [
                "!",
                -8.949790000915527
            ],
            [
                "\u043e\u0433\u043e",
                -5.663281440734863
            ],
            [
                "\u2581\u043e\u0442",
                -5.842832088470459
            ],
            [
                "\u2581at",
                -5.7821269035339355
            ],
            [
                "\u0443",
                -6.208296775817871
            ],
            [
                "\u2581not",
                -5.96812629699707
            ],
            [
                "\u2581its",
                -5.636816024780273
            ],
            [
                "\u2581have",
                -6.071496486663818
            ],
            [
                "\u2581or",
                -5.7202348709106445
            ],
            [
                "\u2581from",
                -5.868773460388184
            ],
            [
                "\u2581this",
                -6.10840368270874
            ],
            [
                "...",
                -9.400420188903809
            ],
            [
                "a",
                -7.080822944641113
            ],
            [
                "\u2581\u043a\u0430\u043a",
                -6.087374687194824
            ],
            [
                "\u043e",
                -6.27492618560791
            ],
            [
                "\u2581\"",
                -5.836660861968994
            ],
            [
                "\u2581\u0430",
                -6.006447792053223
            ],
            [
                "\u2581\u0438\u0437",
                -6.106395721435547
            ],
            [
                "\u2581\u0438\u043b\u0438",
                -5.896366596221924
            ],
            [
                "\u2581\u044f",
                -7.524447917938232
            ],
            [
                "\u2581\u042f",
                -7.912619590759277
            ],
            [
                "\u2581an",
                -5.994204998016357
            ],
            [
                "\u2581\u0442\u0430\u043a\u0436\u0435",
                -5.874310493469238
            ],
            [
                "\u2581\u044d\u0442\u043e",
                -6.9271440505981445
            ],
            [
                "\u2581all",
                -6.2182936668396
            ],
            [
                "\u2581which",
                -6.015172958374023
            ],
            [
                "\u2581\u0435\u0433\u043e",
                -6.304171562194824
            ],
            [
                "\u2581their",
                -6.086565017700195
            ],
            [
                "\u043e\u0439",
                -6.215548992156982
            ],
            [
                "\u2581will",
                -6.223428249359131
            ],
            [
                "\u2581A",
                -6.591622352600098
            ],
            [
                "\u2581Committee",
                -6.08705472946167
            ],
            [
                "\u2581has",
                -6.158346652984619
            ],
            [
                "\u2581\u0438\u0445",
                -6.35316276550293
            ],
            [
                "\u2581In",
                -6.1402130126953125
            ],
            [
                "u",
                -9.78381061553955
            ],
            [
                "\u2581\u043f\u0440\u0438",
                -6.427425861358643
            ],
            [
                "\u0441\u044f",
                -6.520556926727295
            ],
            [
                "\u2581had",
                -6.358368396759033
            ],
            [
                "\u2581\u0443",
                -7.191458702087402
            ],
            [
                "\u2581been",
                -6.3231706619262695
            ],
            [
                "\u2581It",
                -6.778855800628662
            ],
            [
                "ot",
                -11.366320610046387
            ],
            [
                "q",
                -11.067671775817871
            ],
            [
                "\u044b",
                -6.539614200592041
            ],
            [
                "\u25811",
                -7.030725479125977
            ],
            [
                "\u2581were",
                -6.481638431549072
            ],
            [
                "\u2581You",
                -9.438929557800293
            ],
            [
                "m",
                -7.662393569946289
            ],
            [
                "\u2581we",
                -6.980906009674072
            ],
            [
                "\u0430\u044f",
                -6.439837455749512
            ],
            [
                "\u2581\u0447\u0442\u043e\u0431\u044b",
                -6.494466781616211
            ],
            [
                "\u2581me",
                -8.449423789978027
            ],
            [
                "\u2581United",
                -6.232015132904053
            ],
            [
                ").",
                -7.052421569824219
            ],
            [
                "\u2581\u0421",
                -6.978945255279541
            ],
            [
                "\u2581\u0442\u044b",
                -9.411235809326172
            ],
            [
                "\u2581international",
                -6.218114376068115
            ],
            [
                "\u2581would",
                -6.49291467666626
            ],
            [
                "\u043e\u043c",
                -6.574473857879639
            ],
            [
                "quot",
                -13.811369895935059
            ],
            [
                "),",
                -7.349144458770752
            ],
            [
                "ing",
                -6.693421363830566
            ],
            [
                "\u2581\u043a\u043e\u0442\u043e\u0440\u044b\u0435",
                -6.400115966796875
            ],
            [
                "\u2581should",
                -6.413848876953125
            ],
            [
                "\u043c\u0438",
                -6.587365627288818
            ],
            [
                "\u2581\u0431\u044b",
                -6.758150100708008
            ],
            [
                "\u2581also",
                -6.311284065246582
            ],
            [
                "\u2581\u0442\u043e\u043c",
                -6.435011863708496
            ],
            [
                "\u2581other",
                -6.4438371658325195
            ],
            [
                "\u2581Nations",
                -6.371933460235596
            ],
            [
                "\u2581can",
                -7.084004878997803
            ],
            [
                "\u2581\u0432\u044b",
                -7.917084217071533
            ],
            [
                "\u2581States",
                -6.393245697021484
            ],
            [
                "\u2581\u0434\u043e",
                -6.799464225769043
            ],
            [
                "\u2581they",
                -7.023923397064209
            ],
            [
                "\u2581\u041e\u0440\u0433\u0430\u043d\u0438\u0437\u0430\u0446\u0438\u0438",
                -6.458408832550049
            ],
            [
                "\u2581\u041d\u0430\u0446\u0438\u0439",
                -6.44846773147583
            ],
            [
                "\u2581he",
                -7.2988386154174805
            ],
            [
                "\u2581\u0442\u043e",
                -6.790595054626465
            ],
            [
                "d",
                -7.283074855804443
            ],
            [
                "\u2581\u0418",
                -7.637019157409668
            ],
            [
                "\u2581\u041e\u0431\u044a\u0435\u0434\u0438\u043d\u0435\u043d\u043d\u044b\u0445",
                -6.456836223602295
            ],
            [
                "pos",
                -12.24044418334961
            ],
            [
                "g",
                -8.437056541442871
            ],
            [
                "\u043d",
                -7.006814002990723
            ],
            [
                "\u2581\u0431\u0443\u0434\u0435\u0442",
                -6.735443115234375
            ],
            [
                "\u2581\u0442\u043e\u0433\u043e",
                -6.624722480773926
            ],
            [
                "\u2581s",
                -9.964838027954102
            ],
            [
                "\u2581\u0432\u0441\u0435",
                -6.9105024337768555
            ],
            [
                "\u2581\u043e\u043d",
                -7.15735387802124
            ],
            [
                "\u2581do",
                -7.706624507904053
            ],
            [
                "\u2581\u043e\u0431\u043b\u0430\u0441\u0442\u0438",
                -6.545670986175537
            ],
            [
                "\u2581your",
                -8.156437873840332
            ],
            [
                "\u2581development",
                -6.537280559539795
            ],
            [
                "\u2581\u043e\u0431",
                -6.773371696472168
            ],
            [
                "\u2581Council",
                -6.43146276473999
            ],
            [
                "re",
                -9.434952735900879
            ],
            [
                "\u25812",
                -7.315987586975098
            ],
            [
                "\u2581out",
                -7.207472324371338
            ],
            [
                "\u2581We",
                -7.34639835357666
            ],
            [
                "\u2581rights",
                -6.593161582946777
            ],
            [
                "\u2581report",
                -6.5672125816345215
            ],
            [
                "\u2581one",
                -7.003476142883301
            ],
            [
                "\u2581He",
                -7.957459449768066
            ],
            [
                "\u2581\u0431\u044b\u043b\u043e",
                -6.884469509124756
            ],
            [
                "\u2581\u0447\u0435\u043b\u043e\u0432\u0435\u043a\u0430",
                -6.647815704345703
            ],
            [
                "\u2581my",
                -7.935359001159668
            ],
            [
                "\u2581\u043c\u044b",
                -7.158600330352783
            ],
            [
                "\u25813",
                -7.495827674865723
            ],
            [
                "l",
                -9.370494842529297
            ],
            [
                "\u2581\u042d\u0442\u043e",
                -7.867674827575684
            ],
            [
                "\u2581work",
                -6.67692756652832
            ],
            [
                "\u2581\u0440\u0430\u0437\u0432\u0438\u0442\u0438\u044f",
                -6.639012813568115
            ],
            [
                "\u2581No",
                -7.671756267547607
            ],
            [
                "e",
                -7.5046281814575195
            ],
            [
                "\u0433\u043e",
                -6.868459224700928
            ],
            [
                "\u044e",
                -7.508836269378662
            ],
            [
                "\u2581countries",
                -6.611675262451172
            ],
            [
                "\u2581his",
                -6.9093170166015625
            ],
            [
                "\u2581\u041f\u043e",
                -7.45318603515625
            ],
            [
                "\u2581\u0435\u0435",
                -6.8265862464904785
            ],
            [
                "\u2581under",
                -6.702488899230957
            ],
            [
                "\u2581what",
                -7.978152751922607
            ],
            [
                "\u2581such",
                -6.649317741394043
            ],
            [
                "\u2581but",
                -7.257680416107178
            ],
            [
                "\u2581know",
                -9.028999328613281
            ],
            [
                "\u2581\u0442\u0430\u043a",
                -7.503022193908691
            ],
            [
                "\u2581\u043e\u043d\u0438",
                -7.190701961517334
            ],
            [
                "\u2581there",
                -7.350959777832031
            ],
            [
                "\u2581\u043f\u0440\u0430\u0432",
                -6.774606227874756
            ],
            [
                "\u2581\u0436\u0435",
                -7.21223258972168
            ],
            [
                "\u2581about",
                -7.49751615524292
            ],
            [
                "n",
                -8.908614158630371
            ],
            [
                "\u2581\u044d\u0442\u043e\u0439",
                -6.746330261230469
            ],
            [
                "\u2581session",
                -6.701311111450195
            ],
            [
                "\u2581who",
                -7.219468593597412
            ],
            [
                "\u2581\u0441\u043e",
                -7.096295356750488
            ],
            [
                "\u2581\u043e\u0442\u043d\u043e\u0448\u0435\u043d\u0438\u0438",
                -6.726672649383545
            ],
            [
                "\u2581so",
                -7.412524700164795
            ],
            [
                "A",
                -7.322916030883789
            ],
            [
                "\u2581\u0410",
                -7.8155951499938965
            ],
            [
                "\"",
                -6.920281410217285
            ],
            [
                "\u2581\u0431\u044b\u0442\u044c",
                -7.020755290985107
            ],
            [
                "y",
                -8.626486778259277
            ],
            [
                "\u2581including",
                -6.779769420623779
            ],
            [
                "\u2581[",
                -7.955030918121338
            ],
            [
                "\u2581human",
                -6.7956719398498535
            ],
            [
                "\u2581\u043f\u043e\u0434",
                -7.132572650909424
            ],
            [
                "\u2581them",
                -7.407877445220947
            ],
            [
                "\u2581\u0422\u044b",
                -10.765276908874512
            ],
            [
                "\u2581right",
                -7.487172603607178
            ],
            [
                "\u2581\u0431\u044b\u043b",
                -7.244668960571289
            ],
            [
                "\u2581more",
                -6.962573051452637
            ],
            [
                "\u2581\u0431\u043e\u043b\u0435\u0435",
                -6.818040370941162
            ],
            [
                "\u2581no",
                -7.346744060516357
            ],
            [
                "\u2581information",
                -6.797758102416992
            ],
            [
                "\u2581up",
                -7.583722114562988
            ],
            [
                "\u0443\u044e",
                -6.922700881958008
            ],
            [
                "\u258110",
                -7.7809648513793945
            ],
            [
                "\u2581\u0432\u043e\u043f\u0440\u043e\u0441\u0430\u043c",
                -6.867935657501221
            ],
            [
                "\u2581\u043d\u043e",
                -7.560080051422119
            ],
            [
                "\u2581\u0433\u043e\u0434\u0443",
                -6.894245147705078
            ],
            [
                "\u2581resolution",
                -6.7332611083984375
            ],
            [
                "\u2581What",
                -8.619958877563477
            ],
            [
                "\u25814",
                -7.661583423614502
            ],
            [
                "\u0432",
                -7.568755626678467
            ],
            [
                "\u2581\u043c\u043e\u0436\u0435\u0442",
                -6.993687629699707
            ],
            [
                "\u2581\u043c\u0435\u043d\u044f",
                -9.115191459655762
            ],
            [
                "\u2581women",
                -6.864523410797119
            ],
            [
                "\u2581\u0441\u0432\u044f\u0437\u0438",
                -6.859796047210693
            ],
            [
                "\u2581\u0436\u0435\u043d\u0449\u0438\u043d",
                -6.889804363250732
            ],
            [
                "\u2581national",
                -6.84650993347168
            ],
            [
                "\u044f",
                -7.38498067855835
            ],
            [
                "\u0441",
                -7.773444652557373
            ],
            [
                "\u2581\u041c\u044b",
                -7.53798770904541
            ],
            [
                "\u2581into",
                -6.986157417297363
            ],
            [
                "\u2581\u044d\u0442\u043e\u0433\u043e",
                -7.05112886428833
            ],
            [
                "\u2581\u0431\u044b\u043b\u0438",
                -7.03553581237793
            ],
            [
                "\u2581And",
                -9.036675453186035
            ],
            [
                "\u2581\u0434\u0435\u044f\u0442\u0435\u043b\u044c\u043d\u043e\u0441\u0442\u0438",
                -6.860058784484863
            ],
            [
                "]",
                -8.096960067749023
            ],
            [
                "\u043e\u0432",
                -7.211376667022705
            ],
            [
                "\u25815",
                -7.7354736328125
            ],
            [
                "\u2581\u0432\u0441\u0435\u0445",
                -6.951944351196289
            ],
            [
                "\u2581made",
                -6.984124183654785
            ],
            [
                "\u2581if",
                -7.497086524963379
            ],
            [
                "\u2581those",
                -7.030527591705322
            ],
            [
                "\u2581Convention",
                -6.82420015335083
            ],
            [
                "ed",
                -7.497737407684326
            ],
            [
                "\u2581\u041d\u0430",
                -7.200394630432129
            ],
            [
                "\u043d\u0430",
                -7.644398212432861
            ],
            [
                "\u2581go",
                -9.335326194763184
            ],
            [
                "\u2581\u0427\u0442\u043e",
                -8.25057601928711
            ],
            [
                "\u2581like",
                -8.143524169921875
            ],
            [
                "\u2581\u0432\u043e",
                -7.071136951446533
            ],
            [
                "\u2581time",
                -7.26688814163208
            ],
            [
                "b",
                -7.3593549728393555
            ],
            [
                "\u2581any",
                -7.076975345611572
            ],
            [
                "\u2581General",
                -6.900362014770508
            ],
            [
                "\u2581\u0442\u0435\u043c",
                -6.9624738693237305
            ],
            [
                "\u2581\u0435\u0441\u043b\u0438",
                -7.4556474685668945
            ],
            [
                "\u2581\u2014",
                -6.755483627319336
            ],
            [
                "\u2581\u041e\u043d",
                -7.825186252593994
            ],
            [
                "\u0434",
                -7.903159141540527
            ],
            [
                "\u2581\u0423",
                -8.34128475189209
            ],
            [
                "\u2581Assembly",
                -6.904586315155029
            ],
            [
                "\u2581just",
                -8.74843978881836
            ],
            [
                "\u2581support",
                -6.945773601531982
            ],
            [
                "C",
                -7.702865123748779
            ],
            [
                "\u25816",
                -7.826318740844727
            ],
            [
                "\u2581\u0441\u0435\u0441\u0441\u0438\u0438",
                -6.917322158813477
            ],
            [
                "\u2581This",
                -7.299654960632324
            ],
            [
                "\u2581Commission",
                -6.946536064147949
            ],
            [
                "\u2581International",
                -6.979766368865967
            ],
            [
                "\u2581State",
                -6.976294994354248
            ],
            [
                "\u2581\u0432\u0440\u0435\u043c\u044f",
                -7.131062984466553
            ],
            [
                "\u2581shall",
                -7.056474208831787
            ],
            [
                "\u043b\u0430",
                -8.440255165100098
            ],
            [
                "\u0442",
                -7.851051330566406
            ],
            [
                "\u2581implementation",
                -6.975009441375732
            ],
            [
                "\u2581\u043c\u043d\u0435",
                -8.89820384979248
            ],
            [
                "\u2581him",
                -8.227690696716309
            ],
            [
                "\u2581\u043c\u0435\u0436\u0434\u0443",
                -7.014713764190674
            ],
            [
                "\u2581could",
                -7.349319934844971
            ],
            [
                "\u2581well",
                -7.138496398925781
            ],
            [
                "\u2581her",
                -8.073042869567871
            ],
            [
                "\u2581\u043a\u043e\u0433\u0434\u0430",
                -7.512239933013916
            ],
            [
                "\u2581\u0413\u0435\u043d\u0435\u0440\u0430\u043b\u044c\u043d",
                -6.977344989776611
            ],
            [
                "\u258115",
                -7.8317179679870605
            ],
            [
                "\u2581\u0441\u043e\u043e\u0442\u0432\u0435\u0442\u0441\u0442\u0432\u0438\u0438",
                -7.013521671295166
            ],
            [
                "\u2581\u0440\u0430\u043c\u043a\u0430\u0445",
                -7.033393383026123
            ],
            [
                "\u2581activities",
                -7.018447399139404
            ],
            [
                "\u2581S",
                -7.842910289764404
            ],
            [
                "\u2581\u044f\u0432\u043b\u044f\u0435\u0442\u0441\u044f",
                -7.000475883483887
            ],
            [
                "\u2581against",
                -7.032950401306152
            ],
            [
                "\u2581\u044d\u0442\u043e\u043c",
                -7.29567813873291
            ],
            [
                "\u2581\u041a",
                -7.702218532562256
            ],
            [
                "\u2581may",
                -7.027348041534424
            ],
            [
                "c",
                -7.586342811584473
            ],
            [
                "\u2581\u0440\u0435\u0437\u043e\u043b\u044e\u0446\u0438\u0438",
                -6.975499153137207
            ],
            [
                "\u2581new",
                -7.1340861320495605
            ],
            [
                "General",
                -7.019247531890869
            ],
            [
                "\u2581\u0440\u0430\u0431\u043e\u0442\u044b",
                -7.085187911987305
            ],
            [
                "\u043a\u0430",
                -8.140497207641602
            ],
            [
                "\u2581through",
                -7.170707702636719
            ],
            [
                "\u2581\u041a\u043e\u043c\u0438\u0442\u0435\u0442",
                -7.095579624176025
            ],
            [
                "\u2581don",
                -10.854839324951172
            ],
            [
                "\u25817",
                -7.886890888214111
            ],
            [
                "\u2581meeting",
                -7.039715766906738
            ],
            [
                "\u2581\u0442\u043e\u043b\u044c\u043a\u043e",
                -7.544538974761963
            ],
            [
                "\u043d\u044b\u0445",
                -7.245053291320801
            ],
            [
                "\u2581between",
                -7.108651638031006
            ],
            [
                "\u2581Secretary",
                -7.058078289031982
            ],
            [
                "\u2581these",
                -7.206650257110596
            ],
            [
                "\u043d\u043e",
                -8.068398475646973
            ],
            [
                "\u2581need",
                -7.512687683105469
            ],
            [
                "\u2581\u0434\u043e\u043b\u0436\u043d\u044b",
                -7.149497032165527
            ],
            [
                "\u2581when",
                -7.585927486419678
            ],
            [
                "\u2581\u0434\u043d\u044f",
                -7.137703895568848
            ],
            [
                "\u2581some",
                -7.483088970184326
            ],
            [
                "\u2581\u043e\u043d\u0430",
                -7.721706390380859
            ],
            [
                "\u2581people",
                -7.357377052307129
            ],
            [
                "\u2581law",
                -7.0748982429504395
            ],
            [
                "\u0442\u044c",
                -7.971145153045654
            ],
            [
                "\u2581\u0421\u043e\u0432\u0435\u0442\u0430",
                -6.984658241271973
            ],
            [
                "\u2581only",
                -7.378681659698486
            ],
            [
                "\u0435\u0448\u044c",
                -10.352391242980957
            ],
            [
                "\u2581\u0413",
                -7.4280195236206055
            ],
            [
                "\u044b\u0445",
                -7.1076178550720215
            ],
            [
                "\u2581\u00ab",
                -6.298561096191406
            ],
            [
                "\u2581\u041d\u0435",
                -8.582598686218262
            ],
            [
                "\u2581\u0446\u0435\u043b\u044f\u0445",
                -7.173239707946777
            ],
            [
                "\u0442\u043e",
                -8.975769996643066
            ],
            [
                "\u2581per",
                -7.279401779174805
            ],
            [
                "\u25818",
                -7.946845531463623
            ],
            [
                "\u258118",
                -8.128485679626465
            ],
            [
                "\u258112",
                -8.088995933532715
            ],
            [
                "\u2581than",
                -7.357884883880615
            ],
            [
                "\u2581take",
                -7.495896816253662
            ],
            [
                "\u258120",
                -8.161438941955566
            ],
            [
                "\u2581Government",
                -7.158267974853516
            ],
            [
                "\u2581our",
                -7.347240924835205
            ],
            [
                "\u2581system",
                -7.213551044464111
            ],
            [
                "\u25819",
                -8.000068664550781
            ],
            [
                "\u2581\u0421\u0428\u0410",
                -7.403728485107422
            ],
            [
                "\u2581here",
                -9.559460639953613
            ],
            [
                "\u2581\u0433",
                -7.45945930480957
            ],
            [
                "\u2581two",
                -7.415015697479248
            ],
            [
                "\u2581\u0442\u0435\u0431\u044f",
                -10.242936134338379
            ],
            [
                "\u258130",
                -8.112224578857422
            ],
            [
                "\u2581\u0441\u0442\u0440\u0430\u043d",
                -7.193090915679932
            ],
            [
                "\u2581\u043f\u0440\u0430\u0432\u0430",
                -7.193596839904785
            ],
            [
                "S",
                -7.965333461761475
            ],
            [
                "\u043e\u0435",
                -7.424264907836914
            ],
            [
                "\u2581\u0432\u043a\u043b\u044e\u0447\u0430\u044f",
                -7.240946292877197
            ],
            [
                "\u2581\u0431\u044b\u043b\u0430",
                -7.604101181030273
            ],
            [
                "\u2581That",
                -8.526938438415527
            ],
            [
                "\u2581\u043a\u043e\u0442\u043e\u0440\u044b\u0439",
                -7.326504230499268
            ],
            [
                "L",
                -8.004251480102539
            ],
            [
                "ll",
                -10.80859375
            ],
            [
                "\u044b\u0439",
                -7.466582775115967
            ],
            [
                "\u258111",
                -8.160626411437988
            ],
            [
                "\u2581\u0431\u0435\u0437\u043e\u043f\u0430\u0441\u043d\u043e\u0441\u0442\u0438",
                -7.2552289962768555
            ],
            [
                "\u2581draft",
                -7.142919540405273
            ],
            [
                "\u2581over",
                -7.62851095199585
            ],
            [
                "\u2581b",
                -7.646955490112305
            ],
            [
                "\u2581\u043f\u043e\u043c\u043e\u0449\u0438",
                -7.270198822021484
            ],
            [
                "\u043b\u0438",
                -8.046783447265625
            ],
            [
                "\u2581children",
                -7.240437030792236
            ],
            [
                "\u2581Mr",
                -7.358757019042969
            ],
            [
                "\u2581C",
                -7.913773059844971
            ],
            [
                "\u2581\u044d\u0442\u0438\u0445",
                -7.293412208557129
            ],
            [
                "\u2581paragraph",
                -7.2464680671691895
            ],
            [
                "\u2581\u0434\u043e\u043b\u043b",
                -7.516446590423584
            ],
            [
                "\u2581get",
                -9.721489906311035
            ],
            [
                "\u2581Conference",
                -7.276005744934082
            ],
            [
                "\u2581\u0441\u0438\u0441\u0442\u0435\u043c\u044b",
                -7.335234642028809
            ],
            [
                "\u043b",
                -8.34959888458252
            ],
            [
                "\u2581cooperation",
                -7.2442779541015625
            ],
            [
                "\u2581\u0440\u0430\u0437",
                -8.098401069641113
            ],
            [
                "\u2581measures",
                -7.247401237487793
            ],
            [
                "\u2581\u043c",
                -7.754593372344971
            ],
            [
                "\u2581\u0433\u043e\u0441\u0443\u0434\u0430\u0440\u0441\u0442\u0432",
                -7.223290920257568
            ],
            [
                "\u2581All",
                -8.494898796081543
            ],
            [
                "\u2581Group",
                -7.235523700714111
            ],
            [
                "\u2581\u043f\u043e\u0441\u043b\u0435",
                -7.459545135498047
            ],
            [
                "\u258114",
                -8.182682037353516
            ],
            [
                "\u2581programme",
                -7.305839538574219
            ],
            [
                "\u2581country",
                -7.296244144439697
            ],
            [
                "\u2581use",
                -7.361213684082031
            ],
            [
                "\u043d\u044b\u0435",
                -7.500561237335205
            ],
            [
                "\u2581\u043c\u043e\u0433\u0443\u0442",
                -7.2963666915893555
            ],
            [
                "\u2581\u041e",
                -8.360870361328125
            ],
            [
                "\u2581\u0431\u0443\u0434\u0443\u0442",
                -7.402751445770264
            ],
            [
                "\u044b\u0435",
                -7.335035800933838
            ],
            [
                "\u2581\u041a\u043e\u043d\u0432\u0435\u043d\u0446\u0438\u0438",
                -7.288301944732666
            ],
            [
                "\u2581said",
                -7.856178283691406
            ],
            [
                "\u2581\u0412\u044b",
                -9.200435638427734
            ],
            [
                "\u2581\u0434\u0435\u0442\u0435\u0439",
                -7.324257850646973
            ],
            [
                "\u2581organizations",
                -7.301064491271973
            ],
            [
                "\u2581first",
                -7.546693325042725
            ],
            [
                "\u2581years",
                -7.509766101837158
            ],
            [
                "\u2581\u041d\u043e",
                -8.600135803222656
            ],
            [
                "\u2581number",
                -7.392980098724365
            ],
            [
                "\u2581\u0435\u0449\u0435",
                -7.685101509094238
            ],
            [
                "er",
                -8.356297492980957
            ],
            [
                "\u2581Security",
                -7.208964824676514
            ],
            [
                "\u2581now",
                -8.165109634399414
            ],
            [
                "\u2581\u041a\u0430\u043a",
                -7.95889949798584
            ],
            [
                "\u2581security",
                -7.293137073516846
            ],
            [
                "\u2581must",
                -7.394658088684082
            ],
            [
                "\u2581\u043e\u0431\u0435\u0441\u043f\u0435\u0447\u0435\u043d\u0438\u044f",
                -7.3599019050598145
            ],
            [
                "\u2581make",
                -7.736730575561523
            ],
            [
                "\u2581did",
                -8.161835670471191
            ],
            [
                "\u2581\u0441\u0432\u043e\u0435\u0439",
                -7.413117408752441
            ],
            [
                "\u2581\u043b\u0438",
                -7.6028571128845215
            ],
            [
                "\u2581\u043e\u0441\u043d\u043e\u0432\u0435",
                -7.371374130249023
            ],
            [
                "\u0435\u0442",
                -8.064645767211914
            ],
            [
                "\u2581\u0447\u0435\u043c",
                -7.892870903015137
            ],
            [
                "\u2581\u043e\u0441\u0443\u0449\u0435\u0441\u0442\u0432\u043b\u0435\u043d\u0438\u044f",
                -7.366055965423584
            ],
            [
                "\u2581\u043f\u0435\u0440\u0438\u043e\u0434",
                -7.432612895965576
            ],
            [
                "ah",
                -10.782510757446289
            ],
            [
                "\u2581non",
                -7.392304420471191
            ],
            [
                "\u2581resources",
                -7.372661113739014
            ],
            [
                "\u2581\u043a\u043e\u0442\u043e\u0440\u044b\u0445",
                -7.4289422035217285
            ],
            [
                "\u2581\u043e\u0431\u0440\u0430\u0437\u043e\u043c",
                -7.387516021728516
            ],
            [
                "\u2581she",
                -8.56274700164795
            ],
            [
                "\u2581\u043a\u0430\u0447\u0435\u0441\u0442\u0432\u0435",
                -7.368238925933838
            ],
            [
                "\u2581issues",
                -7.372873306274414
            ],
            [
                "\u044c",
                -8.628809928894043
            ],
            [
                "\u2581order",
                -7.379086017608643
            ],
            [
                "\u2581regional",
                -7.390506267547607
            ],
            [
                "\u258116",
                -8.325860977172852
            ],
            [
                "\u2581\u0413\u0435\u043d\u0435\u0440\u0430\u043b\u044c\u043d\u043e\u0439",
                -7.364638805389404
            ],
            [
                "\u043d\u043e\u0439",
                -7.569990158081055
            ],
            [
                "\u2581think",
                -9.779953956604004
            ],
            [
                "\u2581article",
                -7.323976516723633
            ],
            [
                "\u2581Development",
                -7.419325351715088
            ],
            [
                "\u258117",
                -8.276679992675781
            ],
            [
                "\u043d\u043e\u0433\u043e",
                -7.591857433319092
            ],
            [
                "ve",
                -10.40304183959961
            ],
            [
                "\u2581\u0447\u0430\u0441\u0442\u043d\u043e\u0441\u0442\u0438",
                -7.370883941650391
            ],
            [
                "\u2581cent",
                -7.499210834503174
            ],
            [
                "\u2581\u043f\u0440\u043e",
                -8.404219627380371
            ],
            [
                "\u2581want",
                -9.613866806030273
            ],
            [
                "\u2581\u0434\u0440\u0443\u0433\u0438\u0445",
                -7.43282413482666
            ],
            [
                "\u2581\u0414\u0430",
                -9.717741012573242
            ],
            [
                "\u258119",
                -8.343399047851562
            ],
            [
                "\u2581--",
                -10.028223037719727
            ],
            [
                "\u2581\u043c\u0435\u0440\u044b",
                -7.391867637634277
            ],
            [
                "\u2581\u0438\u043d\u0444\u043e\u0440\u043c\u0430\u0446\u0438\u0438",
                -7.463799953460693
            ],
            [
                "\u2581Rights",
                -7.461177349090576
            ],
            [
                "\u043d\u044b\u0439",
                -7.904052734375
            ],
            [
                "\u258113",
                -8.223104476928711
            ],
            [
                "\u043a\u0438",
                -8.158052444458008
            ],
            [
                "\u2581\u0441\u043b\u0435\u0434\u0443\u0435\u0442",
                -7.4218525886535645
            ],
            [
                "\u2581But",
                -8.686016082763672
            ],
            [
                "\u2581\u0441\u0435\u043a\u0440\u0435\u0442\u0430\u0440\u044f",
                -7.3858256340026855
            ],
            [
                "\u2581efforts",
                -7.35640287399292
            ],
            [
                "\u2581further",
                -7.417313098907471
            ],
            [
                "\u2581\u043c\u0438\u0440\u0430",
                -7.370594501495361
            ],
            [
                "\u2581B",
                -8.468817710876465
            ],
            [
                "\u2581economic",
                -7.460610389709473
            ],
            [
                "\u2581\u0441\u0440\u0435\u0434\u0441\u0442\u0432",
                -7.498753070831299
            ],
            [
                "\u2581\u0433\u043e\u0441\u0443\u0434\u0430\u0440\u0441\u0442\u0432\u0430",
                -7.400146961212158
            ],
            [
                "\u2581got",
                -11.24887752532959
            ],
            [
                "\u2581\u043b\u0435\u0442",
                -7.734903335571289
            ],
            [
                "\u2581\u0438\u043c",
                -8.154772758483887
            ],
            [
                "\u2581\u0443\u0436\u0435",
                -7.966472625732422
            ],
            [
                "\u2581process",
                -7.419694900512695
            ],
            [
                "\u2581provide",
                -7.419530391693115
            ],
            [
                "\u2581\u0433\u043e\u0434",
                -7.580528259277344
            ],
            [
                ");",
                -8.278007507324219
            ],
            [
                "\u2581where",
                -7.7713727951049805
            ],
            [
                "h",
                -9.00545597076416
            ],
            [
                "\u2581good",
                -8.361584663391113
            ],
            [
                "\u2581\u0442\u0435\u0431\u0435",
                -10.376349449157715
            ],
            [
                "\u2581financial",
                -7.461789608001709
            ],
            [
                "\u2581\u0443\u0440\u043e\u0432\u043d\u0435",
                -7.4516282081604
            ],
            [
                "\u043a\u0443",
                -8.61441707611084
            ],
            [
                "\u2581assistance",
                -7.449554443359375
            ],
            [
                "\u2581being",
                -7.616488933563232
            ],
            [
                "\".",
                -8.040715217590332
            ],
            [
                "\u2581us",
                -8.129180908203125
            ],
            [
                "\u2581\u0434\u043e\u043a\u043b\u0430\u0434",
                -7.457515239715576
            ],
            [
                "\u2581\u043d\u0435\u0442",
                -8.789205551147461
            ],
            [
                "\u2581before",
                -7.825130939483643
            ],
            [
                "\u2581provided",
                -7.509088516235352
            ],
            [
                "ly",
                -7.9188408851623535
            ],
            [
                "\u2581\u043b\u0438\u0446",
                -7.504739761352539
            ],
            [
                "\u2581So",
                -9.58926010131836
            ],
            [
                "\u2581Special",
                -7.511237621307373
            ],
            [
                "\u2581party",
                -7.62501335144043
            ],
            [
                "\u2581\u0447",
                -8.175554275512695
            ],
            [
                "\u2581\u043f\u0440\u043e\u0433\u0440\u0430\u043c\u043c\u044b",
                -7.54799747467041
            ],
            [
                "\u2581see",
                -8.649443626403809
            ],
            [
                "\u2581decision",
                -7.495944499969482
            ],
            [
                "\u2581They",
                -8.307443618774414
            ],
            [
                "\u258131",
                -8.481023788452148
            ],
            [
                "\u2581services",
                -7.598839282989502
            ],
            [
                "\u2581\u0435\u0441\u0442\u044c",
                -8.920863151550293
            ],
            [
                "\u2581\u0433\u0440\u0443\u043f\u043f\u044b",
                -7.537220001220703
            ],
            [
                "\u2581\u0431\u0435\u0437",
                -7.834718704223633
            ],
            [
                "\u2581\u0415\u0441\u043b\u0438",
                -8.169198036193848
            ],
            [
                "\u2581\u0445\u043e\u0434\u0435",
                -7.524762153625488
            ],
            [
                "\u2581\u043a\u043e\u0442\u043e\u0440\u0430\u044f",
                -7.573166370391846
            ],
            [
                "\u2581December",
                -7.585387706756592
            ],
            [
                "\u043c\u0443",
                -7.885457515716553
            ],
            [
                "\u2581following",
                -7.507194995880127
            ],
            [
                "\u2581members",
                -7.498342990875244
            ],
            [
                "\u2581during",
                -7.569862365722656
            ],
            [
                "\u2581how",
                -8.179628372192383
            ],
            [
                "\u2581ensure",
                -7.513214111328125
            ],
            [
                "\u2581particular",
                -7.470121383666992
            ],
            [
                "\u0438\u0435",
                -7.765653610229492
            ],
            [
                "\u2581\u0434\u0435\u0439\u0441\u0442\u0432\u0438\u0439",
                -7.548985481262207
            ],
            [
                "\u2581within",
                -7.53481388092041
            ],
            [
                "\u2581\u0411\u0435\u0437\u043e\u043f\u0430\u0441\u043d\u043e\u0441\u0442\u0438",
                -7.362719535827637
            ],
            [
                "\u2581way",
                -8.101113319396973
            ],
            [
                "\u25812005",
                -7.7279052734375
            ],
            [
                "\u2581\u0440\u0435\u0441\u0443\u0440\u0441\u043e\u0432",
                -7.6106486320495605
            ],
            [
                "\u2581social",
                -7.589620113372803
            ],
            [
                "\u2581\u0441\u043b\u0443\u0447\u0430\u0435",
                -7.618498802185059
            ],
            [
                "\u2581adopted",
                -7.512053489685059
            ],
            [
                "\u2581Human",
                -7.604461669921875
            ],
            [
                "\u044b\u043c",
                -7.627717971801758
            ],
            [
                "\u258121",
                -8.582772254943848
            ],
            [
                "\u2581\u0440\u0435\u0448\u0435\u043d\u0438\u044f",
                -7.542770862579346
            ],
            [
                "\u258125",
                -8.597556114196777
            ],
            [
                "\u2581public",
                -7.591525554656982
            ],
            [
                "\u2581level",
                -7.61068868637085
            ],
            [
                "\u2581\u043d\u0438\u0445",
                -7.99887752532959
            ],
            [
                "\u043d\u0430\u044f",
                -7.980630397796631
            ],
            [
                "\u2581period",
                -7.607759475708008
            ],
            [
                "\u2581\u043c\u0435\u0436\u0434\u0443\u043d\u0430\u0440\u043e\u0434\u043d\u043e\u0433\u043e",
                -7.519676685333252
            ],
            [
                "\u2581\u043a\u0442\u043e",
                -8.459327697753906
            ],
            [
                "\u2581\u043c\u043e\u0436\u043d\u043e",
                -7.668753623962402
            ],
            [
                "\u0435\u0439",
                -8.069987297058105
            ],
            [
                "\u2581\u043c\u0435\u0440",
                -7.5949249267578125
            ],
            [
                "\u0438\u043c",
                -8.107690811157227
            ],
            [
                "th",
                -7.98918342590332
            ],
            [
                "\u2581Working",
                -7.535249710083008
            ],
            [
                "\u2581\u0441\u0442\u0440\u0430\u043d\u044b",
                -7.5773396492004395
            ],
            [
                "\u2581held",
                -7.608180999755859
            ],
            [
                "\u2581\u044d\u0442\u043e\u0442",
                -7.891937255859375
            ],
            [
                "\u2581P",
                -8.15542221069336
            ],
            [
                "\u2581\u041f\u0440\u0438",
                -8.271450996398926
            ],
            [
                "\u2581As",
                -7.6943678855896
            ],
            [
                "\u2581\u044d\u0442\u0438",
                -7.74970006942749
            ],
            [
                "\u2581\u043f\u0440\u043e\u0442\u0438\u0432",
                -7.651472568511963
            ],
            [
                "\u2581health",
                -7.623654842376709
            ],
            [
                "\u258122",
                -8.530750274658203
            ],
            [
                "\u2581\u041a\u043e\u043c\u0438\u0442\u0435\u0442\u0430",
                -7.632406234741211
            ],
            [
                "\u2581\u0442\u0430\u043a\u0438\u0445",
                -7.617971897125244
            ],
            [
                "\u2581E",
                -8.244140625
            ],
            [
                "\u2581At",
                -7.657148361206055
            ],
            [
                "\u2581There",
                -8.214577674865723
            ],
            [
                "\u2581agenda",
                -7.5869975090026855
            ],
            [
                "\u2581programmes",
                -7.639187335968018
            ],
            [
                "\u2581developing",
                -7.5832414627075195
            ],
            [
                "\u043a",
                -8.755407333374023
            ],
            [
                "\u0410",
                -7.912448883056641
            ],
            [
                "\u2581back",
                -9.230657577514648
            ],
            [
                "\u2581relevant",
                -7.590024471282959
            ],
            [
                "\u2581\u041a\u043e\u043c\u0438\u0441\u0441\u0438\u0438",
                -7.584347724914551
            ],
            [
                "\u2581p",
                -8.216878890991211
            ],
            [
                "E",
                -8.213468551635742
            ],
            [
                "\u2581world",
                -7.745699882507324
            ],
            [
                "\u2581\u0441\u0432\u043e\u0438\u0445",
                -7.674710273742676
            ],
            [
                "\u2581both",
                -7.752804756164551
            ],
            [
                "\u2581legal",
                -7.641205310821533
            ],
            [
                "\u2581review",
                -7.6607232093811035
            ],
            [
                "\u2581To",
                -7.8512043952941895
            ],
            [
                "\u2581\u0441\u0432\u043e\u0438",
                -7.708792209625244
            ],
            [
                "\u0432\u0435\u0440",
                -9.002449035644531
            ],
            [
                "\u2581\u0441\u0442\u0430\u0442\u044c\u0438",
                -7.583632469177246
            ],
            [
                "o",
                -9.005444526672363
            ],
            [
                "\u2581\u043e\u0440\u0433\u0430\u043d\u0438\u0437\u0430\u0446\u0438\u0438",
                -7.614772319793701
            ],
            [
                "\u2581\u043d\u0430\u0441",
                -8.58594799041748
            ],
            [
                "\u2581\u043f\u043e\u0432\u0435\u0441\u0442\u043a\u0438",
                -7.5932745933532715
            ],
            [
                "\u2581\u0434\u0435\u043a\u0430\u0431\u0440\u044f",
                -7.703365325927734
            ],
            [
                "\u2581\u043d\u0438",
                -8.17446517944336
            ],
            [
                "\u2581same",
                -7.792055130004883
            ],
            [
                "na",
                -10.459108352661133
            ],
            [
                "\u2581\u0432\u043d\u0438\u043c\u0430\u043d\u0438\u0435",
                -7.630441188812256
            ],
            [
                "\u2581after",
                -7.918857097625732
            ],
            [
                "\u2581\u0441\u0432\u043e\u044e",
                -7.779205322265625
            ],
            [
                "\u0437\u0430",
                -8.241759300231934
            ],
            [
                "\u2581\u0434\u043e\u043b\u0436\u0435\u043d",
                -8.024767875671387
            ],
            [
                "\u2581protection",
                -7.6569108963012695
            ],
            [
                "\u25812000",
                -7.764306545257568
            ],
            [
                "\u2581staff",
                -7.757358551025391
            ],
            [
                "\u2581If",
                -8.30918025970459
            ],
            [
                "\u25812006",
                -7.880029201507568
            ],
            [
                "\u2581\u041a\u0440\u043e\u043c\u0435",
                -7.697690486907959
            ],
            [
                "i",
                -8.258955955505371
            ],
            [
                "\u2581training",
                -7.7500786781311035
            ],
            [
                "\u043f\u043e",
                -8.438238143920898
            ],
            [
                "\u2581taken",
                -7.700496673583984
            ],
            [
                "\u0435\u043c",
                -8.468048095703125
            ],
            [
                "\u258123",
                -8.609219551086426
            ],
            [
                "\u258124",
                -8.718215942382812
            ],
            [
                "in",
                -8.570921897888184
            ],
            [
                "\u2581\u0441\u043e\u0442\u0440\u0443\u0434\u043d\u0438\u0447\u0435\u0441\u0442\u0432\u0430",
                -7.672776222229004
            ],
            [
                "\u2581special",
                -7.681314945220947
            ],
            [
                "\u043e\u043c\u0443",
                -7.796263217926025
            ],
            [
                "\u25812004",
                -7.810391902923584
            ],
            [
                "\u2581part",
                -7.744422912597656
            ],
            [
                "\u2581then",
                -8.725810050964355
            ],
            [
                "\u2581year",
                -7.759443283081055
            ],
            [
                "\u2581\u041e\u043d\u0430",
                -8.552457809448242
            ],
            [
                "\u2581\u0447\u0438\u0441\u043b\u0435",
                -7.751883029937744
            ],
            [
                "\u2581\u043f\u043e\u043b\u043e\u0436\u0435\u043d\u0438\u044f",
                -7.655883312225342
            ],
            [
                "\u25812002",
                -7.770334243774414
            ],
            [
                "\u25812008",
                -8.12265396118164
            ],
            [
                "\u2581regard",
                -7.666553497314453
            ],
            [
                "\u25812003",
                -7.778090476989746
            ],
            [
                "\u2581Well",
                -11.691097259521484
            ],
            [
                "\u2581recommendations",
                -7.727319240570068
            ],
            [
                "\u2581going",
                -10.141613006591797
            ],
            [
                "\u2581important",
                -7.682635307312012
            ],
            [
                "\u2581case",
                -7.823604583740234
            ],
            [
                "\u2581very",
                -8.172375679016113
            ],
            [
                "\u2581\u043f\u0440\u0430\u0432\u0430\u043c",
                -7.786183834075928
            ],
            [
                "\u2581education",
                -7.734092712402344
            ],
            [
                "\u2581most",
                -7.840048313140869
            ],
            [
                "\u2581policy",
                -7.751311779022217
            ],
            [
                "\u0430\u043c\u0438",
                -7.974724292755127
            ],
            [
                "\u2581\u0410\u043b",
                -11.209956169128418
            ],
            [
                "\u2581\u041d\u0435\u0442",
                -10.648114204406738
            ],
            [
                "\u2581peace",
                -7.611937999725342
            ],
            [
                "\u2581II",
                -8.68600845336914
            ],
            [
                "\u2581President",
                -7.624691486358643
            ],
            [
                "\u2581situation",
                -7.670010089874268
            ],
            [
                "\u2581action",
                -7.6959404945373535
            ],
            [
                "\u2581persons",
                -7.771568775177002
            ],
            [
                "\u2581Parties",
                -7.667684555053711
            ],
            [
                "\u2581many",
                -7.766944885253906
            ],
            [
                "\u2581parties",
                -7.695240020751953
            ],
            [
                "\u2581\u0410\u0441\u0441\u0430\u043c\u0431\u043b\u0435\u0438",
                -7.692729949951172
            ],
            [
                "\u25812007",
                -7.987340927124023
            ],
            [
                "\u2581\u0432\u0430\u0441",
                -9.769084930419922
            ],
            [
                "\u2581management",
                -7.810336589813232
            ],
            [
                "\u2581\u0437\u0434\u0435\u0441\u044c",
                -9.66444206237793
            ],
            [
                "\u2581\u043f\u0440\u043e\u0441\u0442\u043e",
                -9.534148216247559
            ],
            [
                "\u2581working",
                -7.857811450958252
            ],
            [
                "\u2581\u0434\u0430\u043d\u043d\u044b\u0445",
                -7.83601713180542
            ],
            [
                "\u2581\u0437\u0430\u0449\u0438\u0442\u044b",
                -7.783724784851074
            ],
            [
                "\u0451",
                -10.447183609008789
            ],
            [
                "\u2581\u0432\u043e\u043f\u0440\u043e\u0441",
                -7.760997295379639
            ],
            [
                "\u2581For",
                -7.9190592765808105
            ],
            [
                "\u2581reports",
                -7.800543308258057
            ],
            [
                "or",
                -8.388768196105957
            ],
            [
                "):",
                -8.22077751159668
            ],
            [
                "\u2581\u0446\u0435\u043b\u044c\u044e",
                -7.78174352645874
            ],
            [
                "\u2581used",
                -7.94256067276001
            ],
            [
                "\u25812009",
                -8.851822853088379
            ],
            [
                "\u2581respect",
                -7.718395709991455
            ],
            [
                "\u2581Programme",
                -7.774601936340332
            ],
            [
                "\u258128",
                -8.715876579284668
            ],
            [
                "\u2581item",
                -7.692181587219238
            ],
            [
                "\u2581community",
                -7.690507888793945
            ],
            [
                "\u2581place",
                -8.026593208312988
            ],
            [
                "\u2581accordance",
                -7.72017240524292
            ],
            [
                "\u2581\u043c\u0435\u0436\u0434\u0443\u043d\u0430\u0440\u043e\u0434\u043d\u044b\u0445",
                -7.7567033767700195
            ],
            [
                "\u2581\u041e\u043d\u0438",
                -8.615260124206543
            ],
            [
                "\u2581continue",
                -7.7070136070251465
            ],
            [
                "\u258126",
                -8.815305709838867
            ],
            [
                "\u2581life",
                -8.168519973754883
            ],
            [
                "\u2581\u0442\u0435\u0445",
                -8.020216941833496
            ],
            [
                "\u2581\u0441\u0435\u0431\u044f",
                -8.255789756774902
            ],
            [
                "\u2581She",
                -9.01362133026123
            ],
            [
                "\u2581three",
                -7.971839904785156
            ],
            [
                "\u0437",
                -8.871322631835938
            ],
            [
                "\u2581\u044d\u0442\u0438\u043c",
                -8.074624061584473
            ],
            [
                "\u25812001",
                -7.777602672576904
            ],
            [
                "\u2581because",
                -8.234748840332031
            ],
            [
                "\u2581among",
                -7.804188251495361
            ],
            [
                "\u2581political",
                -7.764936923980713
            ],
            [
                "\u2581possible",
                -7.797675609588623
            ],
            [
                "\u2581\u043f\u043e\u043b\u0438\u0442\u0438\u043a\u0438",
                -7.857693195343018
            ],
            [
                "\u0421",
                -8.111740112304688
            ],
            [
                "\u2581\u0417\u0430",
                -8.525617599487305
            ],
            [
                "\u2581\u043f\u0440\u043e\u0433\u0440\u0430\u043c\u043c",
                -7.838130950927734
            ],
            [
                "\u2581say",
                -9.410625457763672
            ],
            [
                "\u258127",
                -8.841670989990234
            ],
            [
                "\u2581\u0422\u0430\u043a",
                -9.274458885192871
            ],
            [
                "\u2581\u0443\u0441\u0438\u043b\u0438\u044f",
                -7.71976375579834
            ],
            [
                "\u2581data",
                -7.852447032928467
            ],
            [
                "\u2581\u0432\u043e\u043f\u0440\u043e\u0441\u044b",
                -7.821132183074951
            ],
            [
                "\u2581Republic",
                -7.815135478973389
            ],
            [
                "\u2581\u0432\u043e\u043f\u0440\u043e\u0441\u0443",
                -7.791672706604004
            ],
            [
                "\u2581D",
                -8.939383506774902
            ],
            [
                "\u0438\u043b\u0438",
                -8.41305160522461
            ],
            [
                "\u2581technical",
                -7.830578327178955
            ],
            [
                "\u2581set",
                -7.873342514038086
            ],
            [
                "\u2581d",
                -8.394183158874512
            ],
            [
                "\u2581effective",
                -7.778081893920898
            ],
            [
                "\u2581come",
                -8.97144603729248
            ],
            [
                "\u2581related",
                -7.8567423820495605
            ],
            [
                "\u2581progress",
                -7.80809211730957
            ],
            [
                "\u2581without",
                -7.970003128051758
            ],
            [
                "\u2581\u0421\u043e\u0432\u0435\u0442",
                -7.733821868896484
            ],
            [
                "\u2581each",
                -7.9356255531311035
            ],
            [
                "\u0438\u0442\u044c",
                -8.772541999816895
            ],
            [
                "\u2581\u043a\u043e\u0442\u043e\u0440\u043e\u0439",
                -7.884060382843018
            ],
            [
                "\u2581\u043f\u0440\u0430\u0432\u043e",
                -7.861152172088623
            ],
            [
                "\u0438\u0442",
                -8.899660110473633
            ],
            [
                "\u2581Economic",
                -7.884027004241943
            ],
            [
                "al",
                -8.462970733642578
            ],
            [
                "\u2581\u043d\u0430\u0441\u0435\u043b\u0435\u043d\u0438\u044f",
                -7.940366268157959
            ],
            [
                "\u2581view",
                -7.78441858291626
            ],
            [
                "\u2581June",
                -7.9241943359375
            ],
            [
                "\u2581\u0434\u043e\u043b\u0436\u043d\u0430",
                -8.050244331359863
            ],
            [
                "\u043d\u044b\u043c",
                -8.087608337402344
            ],
            [
                "\u2581basis",
                -7.837154388427734
            ],
            [
                "\u2581\u0440\u0430\u0431\u043e\u0442\u0435",
                -7.883834362030029
            ],
            [
                "\u2581\u0443\u0447\u0435\u0442\u043e\u043c",
                -7.8592376708984375
            ],
            [
                "\u2581World",
                -7.824690341949463
            ],
            [
                "\u2581\u0435\u043c\u0443",
                -8.472678184509277
            ],
            [
                "\u2581established",
                -7.839969635009766
            ],
            [
                "\u2581\u0433\u0440\u0443\u043f\u043f\u0430",
                -7.8539605140686035
            ],
            [
                "\u2581Office",
                -7.870316028594971
            ],
            [
                "\u2581\u0436\u0438\u0437\u043d\u0438",
                -8.13488483428955
            ],
            [
                ".1",
                -8.378140449523926
            ],
            [
                "\u2581down",
                -9.094528198242188
            ],
            [
                "\u2581\u0440\u0435\u0448\u0435\u043d\u0438\u0435",
                -7.868339538574219
            ],
            [
                "\u2581provisions",
                -7.829373836517334
            ],
            [
                "\u258129",
                -8.874231338500977
            ],
            [
                "\u2581c",
                -8.595778465270996
            ],
            [
                "\u2581F",
                -8.80817985534668
            ],
            [
                "\u2581since",
                -8.013970375061035
            ],
            [
                "\u2581capacity",
                -7.881475448608398
            ],
            [
                "\u2581\u043d\u0430\u0434",
                -8.196453094482422
            ],
            [
                "\u2581\u0431\u043e\u043b\u044c\u0448\u0435",
                -8.465386390686035
            ],
            [
                "\u2581\u0432\u0441\u0435\u0433\u043e",
                -8.131433486938477
            ],
            [
                "\u2581\u0438\u043d\u0444\u043e\u0440\u043c\u0430\u0446\u0438\u044e",
                -7.906626224517822
            ],
            [
                "\u2581even",
                -8.309662818908691
            ],
            [
                "\u2581areas",
                -7.883902549743652
            ],
            [
                "\u2581Social",
                -7.948753356933594
            ],
            [
                "\u2581\u043e\u0447\u0435\u043d\u044c",
                -8.847359657287598
            ],
            [
                "\u2581violence",
                -7.911351680755615
            ],
            [
                "\u2581end",
                -7.984760284423828
            ],
            [
                "\u2581\u043e\u0440\u0433\u0430\u043d\u043e\u0432",
                -7.961022853851318
            ],
            [
                "\u2581\u041d\u0443",
                -11.419550895690918
            ],
            [
                "\u2581\u0434\u0440\u0443\u0433\u0438\u0435",
                -7.905965805053711
            ],
            [
                "\u2581\u043f\u0440\u043e\u0435\u043a\u0442\u0430",
                -7.851012229919434
            ],
            [
                "\u2581Organization",
                -7.889684200286865
            ],
            [
                "\u2581help",
                -8.310052871704102
            ],
            [
                "\u0412",
                -8.354769706726074
            ],
            [
                "\u2581full",
                -7.943174362182617
            ],
            [
                "\u2581\u0441\u0442\u043e\u0440\u043e\u043d\u044b",
                -7.905696392059326
            ],
            [
                "\u2581\u043f\u0440\u043e\u0432\u0435\u0434\u0435\u043d\u0438\u044f",
                -7.956053256988525
            ],
            [
                "\u2581\u043a\u043e\u043c\u0438\u0442\u0435\u0442\u0430",
                -7.910791873931885
            ],
            [
                "\u2581\u0441\u0442\u0440\u0430\u043d\u0430\u0445",
                -7.906269550323486
            ],
            [
                "\u2581global",
                -7.9328999519348145
            ],
            [
                "\u2581\u043f\u043e\u043c\u043e\u0449\u044c",
                -7.98714017868042
            ],
            [
                "\u2581\u0446\u0435\u043b\u0435\u0439",
                -7.87906551361084
            ],
            [
                "\u2581\u0433\u0434\u0435",
                -8.394776344299316
            ],
            [
                "\u2581consideration",
                -7.859134197235107
            ],
            [
                "\u0438\u0439",
                -8.025129318237305
            ],
            [
                "\u2581role",
                -7.872068405151367
            ],
            [
                "\u2581\u0432\u0430\u043c",
                -9.938154220581055
            ],
            [
                "\u2581\u044f\u0432\u043b\u044f\u044e\u0442\u0441\u044f",
                -7.907529830932617
            ],
            [
                "\u2581\u0440\u0430\u0431\u043e\u0442\u0443",
                -8.0443696975708
            ],
            [
                "\u2581long",
                -8.269701957702637
            ],
            [
                "\u2581general",
                -7.918682098388672
            ],
            [
                "\u2581\u043a\u043e\u0442\u043e\u0440\u043e\u0435",
                -7.950373649597168
            ],
            [
                "\u2581How",
                -9.050321578979492
            ],
            [
                "\u2581requirements",
                -7.982513427734375
            ],
            [
                "\u2581meetings",
                -7.961208343505859
            ],
            [
                "\u2581million",
                -7.961139678955078
            ],
            [
                "\u2581still",
                -8.46181583404541
            ],
            [
                "\u2581\u043e\u0431\u0435\u0441\u043f\u0435\u0447\u0438\u0442\u044c",
                -7.9312543869018555
            ],
            [
                "\u043e\u043a",
                -8.861796379089355
            ],
            [
                "\u2581budget",
                -7.958665370941162
            ],
            [
                "\u2581group",
                -7.955758571624756
            ],
            [
                "\u043d\u0435",
                -8.507752418518066
            ],
            [
                "\u2581\u043e\u0434\u0438\u043d",
                -8.358968734741211
            ],
            [
                "\u043d\u043e\u0435",
                -8.203659057617188
            ],
            [
                "\u2581\u043d\u0430\u043c",
                -8.736236572265625
            ],
            [
                "\u2581\u043b\u044e\u0434\u0435\u0439",
                -8.189522743225098
            ],
            [
                "\u0440",
                -8.673970222473145
            ],
            [
                "\u2581nuclear",
                -8.0161771774292
            ],
            [
                "\u2581National",
                -8.060853958129883
            ],
            [
                "\u2581while",
                -8.16162395477295
            ],
            [
                "\u2581cases",
                -7.994492530822754
            ],
            [
                "\u2581\u0417",
                -9.706767082214355
            ],
            [
                "\u2581present",
                -7.959763526916504
            ],
            [
                "\u2581upon",
                -8.008787155151367
            ],
            [
                "\u2581\u043f\u0443\u043d\u043a\u0442",
                -7.8525214195251465
            ],
            [
                "\u2581\u0442\u0435\u0447\u0435\u043d\u0438\u0435",
                -8.012038230895996
            ],
            [
                "\u2581On",
                -8.096747398376465
            ],
            [
                "\u2581\u043f\u0435\u0440\u0435",
                -8.654450416564941
            ],
            [
                "\u2581proposed",
                -7.98558235168457
            ],
            [
                "\u2581f",
                -9.257256507873535
            ],
            [
                "\u2581\u0437\u0430\u043a\u043e\u043d\u043e\u0434\u0430\u0442\u0435\u043b\u044c\u0441\u0442\u0432",
                -7.95352029800415
            ],
            [
                "\u2581considered",
                -7.953096866607666
            ],
            [
                "\u2581does",
                -8.229009628295898
            ],
            [
                "2",
                -8.571922302246094
            ],
            [
                "\u2581\u0434\u043e\u043a\u043b\u0430\u0434\u0430",
                -7.980496883392334
            ],
            [
                "\u2581Oh",
                -12.952037811279297
            ],
            [
                "\u2581\u041c",
                -8.62653923034668
            ],
            [
                "\u2581\u043f\u0440\u043e\u0431\u043b\u0435\u043c\u044b",
                -8.012411117553711
            ],
            [
                "\u2581\u043f\u043e\u0434\u0433\u043e\u0442\u043e\u0432\u043a\u0438",
                -8.037854194641113
            ],
            [
                "\u2581\u043f\u0440\u043e\u0435\u043a\u0442",
                -7.933026313781738
            ],
            [
                "\u2581means",
                -8.054601669311523
            ],
            [
                "\u2581July",
                -8.053165435791016
            ],
            [
                "\u2581God",
                -8.060953140258789
            ],
            [
                "\u043e\u0442",
                -8.767348289489746
            ],
            [
                "\u2581\u0434\u0435\u044f\u0442\u0435\u043b\u044c\u043d\u043e\u0441\u0442\u044c",
                -7.980880260467529
            ],
            [
                "\u25812010",
                -9.899210929870605
            ],
            [
                "\u0438\u043b",
                -9.187989234924316
            ],
            [
                "\u043d\u0438",
                -9.145806312561035
            ],
            [
                "\u2581\u043e\u0440\u0443\u0436\u0438\u044f",
                -7.965920448303223
            ],
            [
                "\u0436\u0430",
                -8.422433853149414
            ],
            [
                "\u2581Board",
                -8.029109954833984
            ],
            [
                "\u2581\u0441\u043e\u043e\u0442\u0432\u0435\u0442\u0441\u0442\u0432\u0443\u044e\u0449\u0438\u0445",
                -7.999798774719238
            ],
            [
                "\u2581available",
                -7.96811580657959
            ],
            [
                "\u2581\u0432\u043e\u043f\u0440\u043e\u0441\u043e\u0432",
                -8.011810302734375
            ],
            [
                "\u2581account",
                -7.968927383422852
            ],
            [
                "\u043b\u043e",
                -8.780393600463867
            ],
            [
                "\u0434\u0430",
                -8.976897239685059
            ],
            [
                "\u2581access",
                -8.030609130859375
            ],
            [
                "\u2581M",
                -8.974705696105957
            ],
            [
                "\u2581gender",
                -8.008137702941895
            ],
            [
                "\u0430\u043c",
                -8.395391464233398
            ],
            [
                "\u2581\u043a\u0430\u0441\u0430\u0435\u0442\u0441\u044f",
                -8.008805274963379
            ],
            [
                "\u2581high",
                -8.121328353881836
            ],
            [
                "\u2581document",
                -7.934889793395996
            ],
            [
                "\u2581October",
                -8.120060920715332
            ],
            [
                "\u2581\u0440\u0430\u0441\u0445\u043e\u0434\u043e\u0432",
                -8.219676971435547
            ],
            [
                "\u2581\u0432\u0441\u0451",
                -11.720026969909668
            ],
            [
                "\u2581May",
                -8.14622974395752
            ],
            [
                "\u2581\u0441\u043e\u0442\u0440\u0443\u0434\u043d\u0438\u043a\u043e\u0432",
                -8.153274536132812
            ],
            [
                "\u2581man",
                -9.16053295135498
            ],
            [
                "\u2581\u0440\u0435\u0437\u0443\u043b\u044c\u0442\u0430\u0442\u0435",
                -8.006484031677246
            ],
            [
                "\u2581\u0438\u0441\u043f\u043e\u043b\u044c\u0437\u043e\u0432\u0430\u043d\u0438\u044f",
                -8.048079490661621
            ],
            [
                "\u2581give",
                -8.55139446258545
            ],
            [
                "\u2581\u0432\u0441\u0435\u043c",
                -8.157888412475586
            ],
            [
                "\u2581Member",
                -8.002596855163574
            ],
            [
                "\u2581\u041f\u0440\u0435\u0434\u0441\u0435\u0434\u0430\u0442\u0435\u043b\u044f",
                -7.932839870452881
            ],
            [
                "\u2581\u043b\u0438\u0448\u044c",
                -8.220675468444824
            ],
            [
                "\u2581\u0412\u0441\u0435",
                -8.943624496459961
            ],
            [
                "I",
                -9.116311073303223
            ],
            [
                "\u2581September",
                -8.078398704528809
            ],
            [
                "\u2581\u043d\u0430\u0446\u0438\u043e\u043d\u0430\u043b\u044c\u043d\u044b\u0445",
                -8.072946548461914
            ],
            [
                "\u2581\u0434\u043e\u043b\u0436\u043d\u043e",
                -8.097695350646973
            ],
            [
                "\u0441\u0442\u0438",
                -8.863356590270996
            ],
            [
                "\u2581too",
                -9.277336120605469
            ],
            [
                "\u0438\u044f",
                -8.303459167480469
            ],
            [
                "\u2581\u043e\u0440\u0433\u0430\u043d\u0438\u0437\u0430\u0446\u0438\u0439",
                -8.016985893249512
            ],
            [
                "f",
                -8.612783432006836
            ],
            [
                "\u2581\u0437\u043d\u0430\u044e",
                -11.622790336608887
            ],
            [
                "\u2581\u0447\u0435\u0440\u0435\u0437",
                -8.307547569274902
            ],
            [
                "\u2581needs",
                -8.117293357849121
            ],
            [
                "\u2581based",
                -8.039522171020508
            ],
            [
                "\u2581appropriate",
                -7.975954532623291
            ],
            [
                "\u2581much",
                -8.746158599853516
            ],
            [
                "\u2581submitted",
                -8.008315086364746
            ],
            [
                "\u2581\u043e\u0446\u0435\u043d\u043a\u0438",
                -8.091863632202148
            ],
            [
                "1",
                -8.5518159866333
            ],
            [
                "\u2581\u0434\u0435\u043b\u0435",
                -8.196762084960938
            ],
            [
                "\u2581issue",
                -7.928894519805908
            ],
            [
                "\u2581day",
                -8.637890815734863
            ],
            [
                "\u2581institutions",
                -8.010602951049805
            ],
            [
                "\u2581\u0438\u043c\u0435\u0435\u0442",
                -8.092363357543945
            ],
            [
                "\u2581trade",
                -8.019612312316895
            ],
            [
                "\u2581Africa",
                -7.981054306030273
            ],
            [
                "\u2581policies",
                -8.07336139678955
            ],
            [
                "\u2581include",
                -7.993281841278076
            ],
            [
                "\u2581\u0442\u0430\u043a\u0438\u0435",
                -8.118234634399414
            ],
            [
                "\u2581noted",
                -8.033125877380371
            ],
            [
                "\u2581future",
                -8.059678077697754
            ],
            [
                "\u2581\u0437\u043d\u0430\u0447\u0435\u043d\u0438\u0435",
                -8.000121116638184
            ],
            [
                "\u0438\u0448\u044c",
                -10.915593147277832
            ],
            [
                "\u2581area",
                -8.115097999572754
            ],
            [
                "\u043d\u0443\u044e",
                -8.263879776000977
            ],
            [
                "\u2581\u0438\u044e\u043d\u044f",
                -8.157490730285645
            ],
            [
                "\u2581\u0414\u043b\u044f",
                -8.183552742004395
            ],
            [
                "\u2581\u0441\u043e\u0431\u043e\u0439",
                -8.177330017089844
            ],
            [
                "\u2581November",
                -8.162514686584473
            ],
            [
                "\u2581\u043e\u0441\u043e\u0431\u0435\u043d\u043d\u043e",
                -8.041739463806152
            ],
            [
                "\u2581\u041c\u043d\u0435",
                -10.424227714538574
            ],
            [
                "\u2581\u0443\u043f\u0440\u0430\u0432\u043b\u0435\u043d\u0438\u044f",
                -8.13508129119873
            ],
            [
                "\u044e\u0442",
                -8.559239387512207
            ],
            [
                "\u25811999",
                -8.409075736999512
            ],
            [
                "\u2581might",
                -8.399883270263672
            ],
            [
                "\u2581region",
                -8.026951789855957
            ],
            [
                "\u2581child",
                -8.149384498596191
            ],
            [
                "\u2581\u043f\u0440\u0438\u043d\u044f\u0442\u044c",
                -8.077047348022461
            ],
            [
                "\u043b\u0438\u0431\u043e",
                -8.153548240661621
            ],
            [
                "\u2581Court",
                -8.057899475097656
            ],
            [
                "\u2581\u0432\u0440\u0435\u043c\u0435\u043d\u0438",
                -8.301509857177734
            ],
            [
                "\u2581\u043f\u0443\u043d\u043a\u0442\u0435",
                -8.09496784210205
            ],
            [
                "\u2581really",
                -10.324110984802246
            ],
            [
                "\u2581last",
                -8.570067405700684
            ],
            [
                "\u2581given",
                -8.150479316711426
            ],
            [
                "\u2581concerned",
                -8.091632843017578
            ],
            [
                "\u2581family",
                -8.36185073852539
            ],
            [
                "\u2581\u0431\u043e\u0440\u044c\u0431\u0435",
                -8.00295352935791
            ],
            [
                "\u2581\u043f\u0440\u043e\u0446\u0435\u0441\u0441\u0430",
                -8.050521850585938
            ],
            [
                "\u2581groups",
                -8.102824211120605
            ],
            [
                "\u2581\u0443\u0440\u043e\u0432\u043d\u044f",
                -8.151707649230957
            ],
            [
                "\u2581\u0440\u0435\u0448\u0435\u043d\u0438\u0439",
                -8.074127197265625
            ],
            [
                "\u2581H",
                -9.251731872558594
            ],
            [
                "\u2581\u0441\u0440\u0435\u0434\u0441\u0442\u0432\u0430",
                -8.136846542358398
            ],
            [
                "\u2581\u0447\u0435\u043b\u043e\u0432\u0435\u043a",
                -8.484528541564941
            ],
            [
                "\u2581\u043f\u043e\u0434\u0434\u0435\u0440\u0436\u043a\u0438",
                -8.203415870666504
            ],
            [
                "\u2581\u043f\u043e\u0441\u043a\u043e\u043b\u044c\u043a\u0443",
                -8.10626220703125
            ],
            [
                "\u2581\u043d\u0435\u0433\u043e",
                -8.744512557983398
            ],
            [
                "\u2581above",
                -8.11291217803955
            ],
            [
                "\u2581Why",
                -9.771050453186035
            ],
            [
                "\u2581European",
                -7.999527931213379
            ],
            [
                "\u043d\u0443",
                -8.996783256530762
            ],
            [
                "\u2581\u043f\u043e\u0434\u0434\u0435\u0440\u0436\u043a\u0443",
                -8.095742225646973
            ],
            [
                "\u2581framework",
                -8.09316349029541
            ],
            [
                "\u2581something",
                -10.307029724121094
            ],
            [
                "\u2581never",
                -9.565799713134766
            ],
            [
                "\u2581\u043f\u0435\u0440\u0435\u0434",
                -8.385693550109863
            ],
            [
                "\u2581specific",
                -8.089080810546875
            ],
            [
                "up",
                -8.392462730407715
            ],
            [
                "\u2581Ye",
                -12.49043083190918
            ],
            [
                "\u0438\u0445",
                -8.249053955078125
            ],
            [
                "\u0432\u0430",
                -9.071817398071289
            ],
            [
                "\u2581\u0433\u043e\u0434\u044b",
                -8.266727447509766
            ],
            [
                "\u2581\u0440\u0435\u043a\u043e\u043c\u0435\u043d\u0434\u0430\u0446\u0438\u0438",
                -8.110692977905273
            ],
            [
                "\u2581\u043d\u0443\u0436\u043d\u043e",
                -9.399260520935059
            ],
            [
                "\u2581better",
                -8.683998107910156
            ],
            [
                "\u2581\u0432\u043e\u0437\u043c\u043e\u0436\u043d\u043e\u0441\u0442\u044c",
                -8.107876777648926
            ],
            [
                "\u2581\u043e\u0442\u043d\u043e\u0441\u0438\u0442\u0435\u043b\u044c\u043d\u043e",
                -8.10741901397705
            ],
            [
                "\u2581\u0434\u043e\u043a\u043b\u0430\u0434\u0435",
                -8.091085433959961
            ],
            [
                "\u2581\u0443\u0447\u0430\u0441\u0442\u0438\u0435",
                -8.083168983459473
            ],
            [
                "\u2581\u0447\u043b\u0435\u043d\u043e\u0432",
                -8.071742057800293
            ],
            [
                "\u2581\u0442\u0430\u043a\u043e\u0439",
                -8.400606155395508
            ],
            [
                "\u2581increase",
                -8.10525131225586
            ],
            [
                "\u2581\u043f\u0443\u0442\u0435\u043c",
                -8.165284156799316
            ],
            [
                "\u2581\u0434\u0430",
                -9.73019790649414
            ],
            [
                "\u2581\u0434\u0430\u0436\u0435",
                -8.589343070983887
            ],
            [
                "\u258150",
                -9.16014289855957
            ],
            [
                "\u2581didn",
                -11.70279598236084
            ],
            [
                "\u2581tell",
                -10.66043758392334
            ],
            [
                "\u2581necessary",
                -8.060101509094238
            ],
            [
                "\u2581delegation",
                -8.083827018737793
            ],
            [
                "\u2581\u0441\u043a\u0430\u0437\u0430\u043b",
                -9.185750007629395
            ],
            [
                "\u2581\u0433\u043e\u0434\u043e\u0432",
                -8.191688537597656
            ],
            [
                "\u2581plan",
                -8.248888969421387
            ],
            [
                "\u2581\u043d\u0435\u043e\u0431\u0445\u043e\u0434\u0438\u043c\u043e",
                -8.050593376159668
            ],
            [
                "\u2581developed",
                -8.152009010314941
            ],
            [
                "\u2581\u044d\u043a\u0441\u043f\u0435\u0440\u0442\u043e\u0432",
                -8.171555519104004
            ],
            [
                "\u0434\u0443",
                -9.398580551147461
            ],
            [
                "\u0436\u0438",
                -9.438422203063965
            ],
            [
                "\u2581\u041a\u043e\u043d\u0444\u0435\u0440\u0435\u043d\u0446\u0438\u0438",
                -8.189326286315918
            ],
            [
                "\u2581\u0440\u043e\u043b\u044c",
                -8.084818840026855
            ],
            [
                "\u2581importance",
                -8.064889907836914
            ],
            [
                "\u2581note",
                -8.07001781463623
            ],
            [
                "\u2581\u0433\u043e\u0432\u043e\u0440\u0438\u0442",
                -8.401426315307617
            ],
            [
                "\u2581\u0440\u0430\u0437\u043b\u0438\u0447\u043d\u044b\u0445",
                -8.139606475830078
            ],
            [
                "\u0434\u0438",
                -9.457646369934082
            ],
            [
                "\u2581\u043f\u0440\u0438\u043c\u0435\u043d\u0435\u043d\u0438\u044f",
                -8.16091251373291
            ],
            [
                "\u2581project",
                -8.154376983642578
            ],
            [
                "\u2581bodies",
                -8.179179191589355
            ],
            [
                ".\"",
                -9.033060073852539
            ],
            [
                "\u2581control",
                -8.18490982055664
            ],
            [
                "\u2581Do",
                -9.87188720703125
            ],
            [
                "\u0436",
                -9.39697265625
            ],
            [
                "\u2581New",
                -8.209860801696777
            ],
            [
                "\u2581agreed",
                -8.12161636352539
            ],
            [
                "\u2581\u043a\u043e\u043c\u0438\u0442\u0435\u0442",
                -8.133596420288086
            ],
            [
                "\u2581\u041e\u0434\u043d\u0430\u043a\u043e",
                -8.0200777053833
            ],
            [
                "\u2581'",
                -8.744905471801758
            ],
            [
                "\u2581\u0442\u0430\u043c",
                -9.506674766540527
            ],
            [
                "\u2581\u0434\u043e\u0441\u0442\u0438\u0436\u0435\u043d\u0438\u044f",
                -8.091887474060059
            ],
            [
                "\u2581\u0414",
                -8.932242393493652
            ],
            [
                "\u043f",
                -9.054813385009766
            ],
            [
                "\u2581\u043e\u0431\u0440\u0430\u0437\u043e\u0432\u0430\u043d\u0438\u044f",
                -8.180936813354492
            ],
            [
                "\u2581various",
                -8.128552436828613
            ],
            [
                "\u2581\u043f\u0440\u0430\u0432\u0438\u0442\u0435\u043b\u044c\u0441\u0442\u0432\u0430",
                -8.121016502380371
            ],
            [
                "\u2581\u0438\u044e\u043b\u044f",
                -8.246207237243652
            ],
            [
                "\u2581local",
                -8.167008399963379
            ],
            [
                "\u25811998",
                -8.85837173461914
            ],
            [
                "\u0447",
                -9.207133293151855
            ],
            [
                "Add",
                -8.759866714477539
            ],
            [
                "\u2581\u0434\u0438\u0441\u043a\u0440\u0438\u043c\u0438\u043d\u0430\u0446\u0438\u0438",
                -8.16278076171875
            ],
            [
                "\u2581concerning",
                -8.15013599395752
            ],
            [
                "\u2581\u043f\u0443\u043d\u043a\u0442\u0430",
                -8.104145050048828
            ],
            [
                "\u25812011",
                -11.264800071716309
            ],
            [
                "\u2581question",
                -8.240921020507812
            ],
            [
                "\u2581\u041f",
                -8.825961112976074
            ],
            [
                "\u041c",
                -8.564129829406738
            ],
            [
                "\u2581person",
                -8.275919914245605
            ],
            [
                "\u2581required",
                -8.15102481842041
            ],
            [
                "\u2581own",
                -8.47658920288086
            ],
            [
                "\u2581L",
                -9.178598403930664
            ],
            [
                "\u043d\u043e\u043c",
                -8.420302391052246
            ],
            [
                "\u2581sustainable",
                -8.243654251098633
            ],
            [
                "\u2581\u041f\u0440\u0435\u0434\u0441\u0435\u0434\u0430\u0442\u0435\u043b\u044c",
                -7.997584342956543
            ],
            [
                "\u2581\u0432\u043e\u0437\u043c\u043e\u0436\u043d\u043e\u0441\u0442\u0438",
                -8.178017616271973
            ],
            [
                "\u2581little",
                -9.680546760559082
            ],
            [
                "\u2581\u043d\u0435\u0439",
                -8.742050170898438
            ],
            [
                "\u2581off",
                -9.557077407836914
            ],
            [
                "\u2581\u043f\u043e\u0440\u044f\u0434\u043a\u0435",
                -8.742839813232422
            ],
            [
                "\u2581different",
                -8.292203903198242
            ],
            [
                "\u0434\u0435",
                -9.165826797485352
            ],
            [
                "\u043e\u0441\u0442\u0438",
                -8.450055122375488
            ],
            [
                "\u2581\u0443\u0441\u043b\u0443\u0433",
                -8.28762149810791
            ],
            [
                "\u2581\u041f\u0440\u043e",
                -9.443245887756348
            ],
            [
                "\u0430\u0445",
                -8.345113754272461
            ],
            [
                "\u2581\u043f\u0440\u0438\u043d\u044f\u0442\u0438\u044f",
                -8.157835006713867
            ],
            [
                "\u2581additional",
                -8.165365219116211
            ],
            [
                "\u2581\u0446\u0435\u043b\u0438",
                -8.143890380859375
            ],
            [
                "\u2581levels",
                -8.201923370361328
            ],
            [
                "\u2581mean",
                -9.942808151245117
            ],
            [
                "\u0442\u0430",
                -8.870139122009277
            ],
            [
                "\u2581\u0434\u0435",
                -9.15086841583252
            ],
            [
                "\u2581requested",
                -8.17931842803955
            ],
            [
                "\u0441\u043c",
                -8.314129829406738
            ],
            [
                "\u2581secretariat",
                -8.1521635055542
            ],
            [
                "\u2581\u043f\u0440\u0438\u0437\u044b\u0432\u0430\u0435\u0442",
                -8.057698249816895
            ],
            [
                "\u2581Action",
                -8.170805931091309
            ],
            [
                "\u2581\u0442",
                -8.676589012145996
            ],
            [
                "\u2581\u0441\u0435\u0439\u0447\u0430\u0441",
                -9.357014656066895
            ],
            [
                "\u2581However",
                -8.111564636230469
            ],
            [
                "\u2581Women",
                -8.229101181030273
            ],
            [
                "\u2581\u0434\u0435\u043b",
                -8.24320125579834
            ],
            [
                "\u00bb",
                -7.361576080322266
            ],
            [
                "\u2581\u043d\u0430\u0441\u0438\u043b\u0438\u044f",
                -8.20536994934082
            ],
            [
                "\u2581\u043e\u043a\u0442\u044f\u0431\u0440\u044f",
                -8.365903854370117
            ],
            [
                "\u2581\u0441\u0432\u043e\u0435\u043c",
                -8.170013427734375
            ],
            [
                "on",
                -8.976076126098633
            ],
            [
                "\u2581\u0434\u0435\u043d\u044c",
                -8.864115715026855
            ],
            [
                "\u2581Protocol",
                -8.151948928833008
            ],
            [
                "\u2581\u0441\u0432\u043e\u0435\u0433\u043e",
                -8.372516632080078
            ],
            [
                "\u044f\u0442",
                -9.431475639343262
            ],
            [
                "es",
                -8.876957893371582
            ],
            [
                "\u043d\u044b\u043c\u0438",
                -8.272974014282227
            ],
            [
                "\u2581whether",
                -8.167703628540039
            ],
            [
                "\u2581\u043c\u043b\u043d",
                -8.347893714904785
            ],
            [
                "\u2581\u0411",
                -9.214831352233887
            ],
            [
                "\u0447\u0435",
                -9.357439994812012
            ],
            [
                "\u25812013",
                -12.01769733428955
            ],
            [
                "\u25811995",
                -9.26220417022705
            ],
            [
                "\u25812012",
                -11.520064353942871
            ],
            [
                "\u2581care",
                -8.54918098449707
            ],
            [
                "\u2581\u043f\u0440\u0435\u0434\u0441\u0442\u0430\u0432\u0438\u0442\u044c",
                -8.228299140930176
            ],
            [
                "\u2581second",
                -8.375266075134277
            ],
            [
                "\u2581\u043f\u043e\u0442\u0435\u043d\u0446\u0438\u0430\u043b\u0430",
                -8.240372657775879
            ],
            [
                "\u2581\u0441\u0432\u044f\u0437\u0430\u043d\u043d\u044b\u0445",
                -8.252277374267578
            ],
            [
                "\u2581address",
                -8.186572074890137
            ],
            [
                "\",",
                -8.433518409729004
            ],
            [
                "\u2581\u0442\u043e\u0440\u0433\u043e\u0432\u043b\u0438",
                -8.193854331970215
            ],
            [
                "\u2581authorities",
                -8.226696014404297
            ],
            [
                "\u2581Law",
                -8.191754341125488
            ],
            [
                "\u2581force",
                -8.213830947875977
            ],
            [
                "\u2581change",
                -8.409037590026855
            ],
            [
                "\u2581find",
                -9.162351608276367
            ],
            [
                "\u2581\u0434\u0440\u0443\u0433\u0438\u043c\u0438",
                -8.215631484985352
            ],
            [
                "\u2581\u0445\u043e\u0447\u0443",
                -10.549510955810547
            ],
            [
                "\u2581\u0441\u0435\u043d\u0442\u044f\u0431\u0440\u044f",
                -8.301608085632324
            ],
            [
                "\u2581current",
                -8.188024520874023
            ],
            [
                "\u043b\u044f",
                -9.226351737976074
            ],
            [
                "\u2581\u0441\u043b\u0443\u0447\u0430\u044f\u0445",
                -8.218317985534668
            ],
            [
                "\u2581\u2013",
                -9.37337875366211
            ],
            [
                "\u0438\u0442\u0435",
                -10.196722030639648
            ],
            [
                "\u2581III",
                -9.303118705749512
            ],
            [
                "\u2581\u043d\u0438\u043c",
                -8.818997383117676
            ],
            [
                "\u2581April",
                -8.299139976501465
            ],
            [
                "\u2581field",
                -8.281965255737305
            ],
            [
                "\u2581My",
                -9.330328941345215
            ],
            [
                "\u2581\u0442\u043e\u0442",
                -8.645073890686035
            ],
            [
                "\u2581\u043e\u043a\u0440\u0443\u0436\u0430\u044e\u0449\u0435\u0439",
                -8.263933181762695
            ],
            [
                "ay",
                -11.617856979370117
            ],
            [
                "\u2581attention",
                -8.198530197143555
            ],
            [
                "\u2581January",
                -8.372639656066895
            ],
            [
                "\u2581\u0412\u043e",
                -8.665760040283203
            ],
            [
                "\u2581\u043f\u0440\u043e\u0431\u043b\u0435\u043c",
                -8.231491088867188
            ],
            [
                "\u2581sector",
                -8.223350524902344
            ],
            [
                "\u2581000",
                -8.484770774841309
            ],
            [
                "\u2581\u0432\u043d\u043e\u0432\u044c",
                -8.177124977111816
            ],
            [
                "\u2581let",
                -9.912867546081543
            ],
            [
                "\u2581\u043f\u0430\u0440",
                -10.34771728515625
            ],
            [
                "\u2581\u0440\u0430\u0441\u0441\u043c\u043e\u0442\u0440\u0435\u043d\u0438\u044f",
                -8.196723937988281
            ],
            [
                "\u2581G",
                -9.27237606048584
            ],
            [
                "\u2581look",
                -9.619206428527832
            ],
            [
                "\u0438\u0438",
                -8.477523803710938
            ],
            [
                "\u2581\u0434\u0435\u043b\u0430",
                -8.994956016540527
            ],
            [
                "\u2581\u043c\u0435\u0436\u0434\u0443\u043d\u0430\u0440\u043e\u0434\u043d\u043e\u0439",
                -8.177677154541016
            ],
            [
                "\u2581\u0440\u0430\u0437\u0432\u0438\u0442\u0438\u0435",
                -8.232940673828125
            ],
            [
                "\u2581environmental",
                -8.256248474121094
            ],
            [
                "\u2581representative",
                -8.141648292541504
            ],
            [
                "\u2581\u043f",
                -9.4354887008667
            ],
            [
                "\u2581\u0424",
                -9.00033187866211
            ],
            [
                "\u2581T",
                -9.261656761169434
            ],
            [
                "\u2581police",
                -8.47930908203125
            ],
            [
                "\u2581promote",
                -8.213059425354004
            ],
            [
                "\u2581call",
                -9.007257461547852
            ],
            [
                "\u2581put",
                -8.790653228759766
            ],
            [
                "\u2581\u0414\u043e",
                -9.294625282287598
            ],
            [
                "\u2581\u0440\u044f\u0434",
                -8.233844757080078
            ],
            [
                "\u2581\u043f\u043e\u043a\u0430",
                -9.031246185302734
            ],
            [
                "\u2581men",
                -8.466496467590332
            ],
            [
                "\u25811994",
                -9.46822738647461
            ],
            [
                "\u2581\u043f\u0440\u0430\u0432\u0438\u0442\u0435\u043b\u044c\u0441\u0442\u0432\u043e",
                -8.226743698120117
            ],
            [
                "\u258140",
                -9.328872680664062
            ],
            [
                "\u2581every",
                -8.694786071777344
            ],
            [
                "\u2581consider",
                -8.189370155334473
            ],
            [
                "\u2581water",
                -8.452714920043945
            ],
            [
                "\u2581contained",
                -8.199002265930176
            ],
            [
                "\u2581participation",
                -8.222295761108398
            ],
            [
                "\u2581addition",
                -8.257121086120605
            ],
            [
                "\u2581am",
                -9.369213104248047
            ],
            [
                "\u2581poverty",
                -8.180865287780762
            ],
            [
                "\u2581\u041a\u043e\u043c\u0438\u0441\u0441\u0438\u044f",
                -8.2485990524292
            ],
            [
                "\u2581\u041e\u0442",
                -9.320929527282715
            ],
            [
                "\u2581\u043c\u0435\u0440\u0435",
                -8.314001083374023
            ],
            [
                "\u2581doing",
                -9.773005485534668
            ],
            [
                "\u2581R",
                -8.981842994689941
            ],
            [
                "r",
                -9.16268253326416
            ],
            [
                "B",
                -9.15113353729248
            ],
            [
                "\u2581\u043d\u043e\u044f\u0431\u0440\u044f",
                -8.419320106506348
            ],
            [
                "\u2581impact",
                -8.250075340270996
            ],
            [
                "\u2581\u0422\u043e",
                -10.012593269348145
            ],
            [
                "\u2581approach",
                -8.231635093688965
            ],
            [
                "\u0438\u044e",
                -8.551623344421387
            ],
            [
                "\u043a\u0435",
                -9.022001266479492
            ],
            [
                "\u2581\u043a\u043e\u043d\u0442\u0440\u043e\u043b\u044f",
                -8.279749870300293
            ],
            [
                "\u2581why",
                -9.467432022094727
            ],
            [
                "\u2581another",
                -8.581169128417969
            ],
            [
                "\u2581already",
                -8.575592041015625
            ],
            [
                "\u2581particularly",
                -8.232929229736328
            ],
            [
                "\u2581\u043c\u0435\u043d\u0435\u0435",
                -8.305365562438965
            ],
            [
                "\u2581\u043f\u0440\u043e\u0446\u0435\u043d\u0442\u043e\u0432",
                -8.321903228759766
            ],
            [
                "\u2581\u0441\u0434\u0435\u043b\u0430\u0442\u044c",
                -8.882716178894043
            ],
            [
                "\u2581Secretariat",
                -8.242191314697266
            ],
            [
                "\u2581best",
                -8.694707870483398
            ],
            [
                "\u2581\u043a\u043e\u0442\u043e\u0440\u043e\u043c",
                -8.270659446716309
            ],
            [
                "\u2581results",
                -8.277237892150879
            ],
            [
                "\u2581systems",
                -8.315711975097656
            ],
            [
                "\u2581conflict",
                -8.074645042419434
            ],
            [
                "\u2581\u044d\u0442\u043e\u043c\u0443",
                -8.393320083618164
            ],
            [
                "\u2581legislation",
                -8.295394897460938
            ],
            [
                "\u2581\u0441\u043e\u0433\u043b\u0430\u0441\u043d\u043e",
                -8.244455337524414
            ],
            [
                "\u2581taking",
                -8.415136337280273
            ],
            [
                "\u2581society",
                -8.266877174377441
            ],
            [
                "\u2581Ok",
                -12.791959762573242
            ],
            [
                "\u2581\u0437\u0430\u0441\u0435\u0434\u0430\u043d\u0438\u0438",
                -8.217691421508789
            ],
            [
                "\u2581\u0434\u0432\u0443\u0445",
                -8.417021751403809
            ],
            [
                "\u2581\u0440\u0430\u0437\u0432\u0438\u0442\u0438\u044e",
                -8.313287734985352
            ],
            [
                "(",
                -8.806278228759766
            ],
            [
                "\u2581context",
                -8.225362777709961
            ],
            [
                "\u2581again",
                -9.064872741699219
            ],
            [
                "\u25811997",
                -9.141846656799316
            ],
            [
                "\u2581\u043d\u043e\u0432\u044b\u0445",
                -8.34615707397461
            ],
            [
                "\u2581guy",
                -13.780272483825684
            ],
            [
                "\u2581criminal",
                -8.349984169006348
            ],
            [
                "\u2581\u043e\u0441\u0443\u0449\u0435\u0441\u0442\u0432\u043b\u0435\u043d\u0438\u044e",
                -8.266361236572266
            ],
            [
                "\u0435\u0442\u0441\u044f",
                -8.642021179199219
            ],
            [
                "\u2581\u0440\u0430\u0437\u0432\u0438\u0432\u0430\u044e\u0449\u0438\u0445\u0441\u044f",
                -8.264861106872559
            ],
            [
                "\u2581re",
                -8.819878578186035
            ],
            [
                "\u2581population",
                -8.429925918579102
            ],
            [
                "\u2581love",
                -9.635626792907715
            ],
            [
                "\u2581next",
                -8.588629722595215
            ],
            [
                "\u2581\u043a\u043e\u0442\u043e\u0440\u043e\u0433\u043e",
                -8.404733657836914
            ],
            [
                "\u2581rules",
                -8.257920265197754
            ],
            [
                "\u043b\u0438\u0441\u044c",
                -8.850607872009277
            ],
            [
                "\u2581Act",
                -8.308391571044922
            ],
            [
                "\u2581\u043f\u0435\u0440\u0441\u043e\u043d\u0430\u043b\u0430",
                -8.425439834594727
            ],
            [
                "\u2581humanitarian",
                -8.20350170135498
            ],
            [
                "\u2581together",
                -8.655221939086914
            ],
            [
                "3",
                -8.940686225891113
            ],
            [
                "\u044e\u0441\u044c",
                -10.678560256958008
            ],
            [
                "\u2581\u043e\u0441\u0443\u0449\u0435\u0441\u0442\u0432\u043b\u0435\u043d\u0438\u0435",
                -8.28239631652832
            ],
            [
                "\u2581resolutions",
                -8.26526927947998
            ],
            [
                "\u2581towards",
                -8.360041618347168
            ],
            [
                "\u2581\u043f\u0440\u0435\u0434\u0441\u0442\u0430\u0432\u0438\u0442\u0435\u043b\u044c",
                -8.309937477111816
            ],
            [
                "\u0415",
                -8.643309593200684
            ],
            [
                "\u2581\u041f\u0443\u043d\u043a\u0442",
                -8.24188232421875
            ],
            [
                "\u2581military",
                -8.367084503173828
            ],
            [
                "\u2581\u0434\u0435\u0439\u0441\u0442\u0432\u0438\u044f",
                -8.275755882263184
            ],
            [
                "\u2581weapons",
                -8.287468910217285
            ],
            [
                "\u2581These",
                -8.395901679992676
            ],
            [
                "\u2581\u0422",
                -9.346150398254395
            ],
            [
                "\u2581found",
                -8.729570388793945
            ],
            [
                "\u2581\u0434\u0432\u0430",
                -8.53014087677002
            ],
            [
                "\u2581Governments",
                -8.291903495788574
            ],
            [
                "\u2581\u043f\u0440\u043e\u0446\u0435\u0434\u0443\u0440\u044b",
                -8.278387069702148
            ],
            [
                "\u2581\u0441\u0438\u043b\u0443",
                -8.281840324401855
            ],
            [
                "\u2581took",
                -8.606949806213379
            ],
            [
                "\u2581called",
                -8.57702922821045
            ],
            [
                "\u2581\u043c\u043d\u043e\u0433\u043e",
                -9.031316757202148
            ],
            [
                "\u2581\u0445\u043e\u0440\u043e\u0448\u043e",
                -9.702966690063477
            ],
            [
                "\u2581request",
                -8.293331146240234
            ],
            [
                "\u2581operations",
                -8.359756469726562
            ],
            [
                "\u2581costs",
                -8.429430961608887
            ],
            [
                "\u2581total",
                -8.408819198608398
            ],
            [
                ".2",
                -8.889277458190918
            ],
            [
                "\u2581monitoring",
                -8.317028045654297
            ],
            [
                "\u2581least",
                -8.53620433807373
            ],
            [
                "\u2581discrimination",
                -8.330821990966797
            ],
            [
                "\u2581\u043e\u0431\u0449\u0435\u0433\u043e",
                -8.424421310424805
            ],
            [
                "\u2581fact",
                -8.392471313476562
            ],
            [
                "\u0432\u043e",
                -9.639366149902344
            ],
            [
                "\u2581received",
                -8.369470596313477
            ],
            [
                "D",
                -9.15832233428955
            ],
            [
                "\u2581\u0441\u0435\u0441\u0441\u0438\u044f",
                -8.276805877685547
            ],
            [
                "\u2581organization",
                -8.279867172241211
            ],
            [
                "\u2581Rapporteur",
                -8.334033012390137
            ],
            [
                "\u2581\u0445\u043e\u0442\u0435\u043b",
                -8.610397338867188
            ],
            [
                "\u2581...",
                -10.475947380065918
            ],
            [
                "\u2581member",
                -8.296927452087402
            ],
            [
                "\u2581done",
                -8.824186325073242
            ],
            [
                "\u2581relating",
                -8.289039611816406
            ],
            [
                "\u0431",
                -9.301729202270508
            ],
            [
                "\u25811996",
                -9.343503952026367
            ],
            [
                "\u2581Fund",
                -8.345763206481934
            ],
            [
                "\u2581\u0441\u0442\u0430\u0442\u044c\u0435",
                -8.303016662597656
            ],
            [
                "\u2581\u041d",
                -8.480612754821777
            ],
            [
                "\u2581representatives",
                -8.312387466430664
            ],
            [
                "\u2581N",
                -9.312657356262207
            ],
            [
                "\u2581\u0425\u043e\u0440\u043e\u0448\u043e",
                -12.523488998413086
            ],
            [
                "\u2581Department",
                -8.346968650817871
            ],
            [
                "\u2581concern",
                -8.309781074523926
            ],
            [
                "\u043f\u0440\u0435\u0436\u043d\u0435\u043c\u0443",
                -8.355050086975098
            ],
            [
                "\u2581V",
                -9.321734428405762
            ],
            [
                "\u2581inter",
                -8.364178657531738
            ],
            [
                "see",
                -8.32982063293457
            ],
            [
                "\u0433\u0430",
                -9.341885566711426
            ],
            [
                "\u2581African",
                -8.297657012939453
            ],
            [
                "it",
                -9.971277236938477
            ],
            [
                "\u2581procedures",
                -8.35295581817627
            ],
            [
                "\u2581\u0425",
                -9.504880905151367
            ],
            [
                "\u2581standards",
                -8.33281135559082
            ],
            [
                "\u2581status",
                -8.368400573730469
            ],
            [
                "\u2581decided",
                -8.364603042602539
            ],
            [
                "\u2581course",
                -8.784042358398438
            ],
            [
                "\u2581result",
                -8.306485176086426
            ],
            [
                "\u2581subject",
                -8.271551132202148
            ],
            [
                "\u2581\u0442\u0435",
                -8.817240715026855
            ],
            [
                "\u2581\u0436\u0438\u0437\u043d\u044c",
                -8.76901912689209
            ],
            [
                "\u0440\u0438",
                -9.208831787109375
            ],
            [
                "\u2581provision",
                -8.361191749572754
            ],
            [
                "\u2581thing",
                -10.678275108337402
            ],
            [
                "\u2581\u0447\u0430\u0441\u0442\u0438",
                -8.43289852142334
            ],
            [
                "\u2581Party",
                -8.291838645935059
            ],
            [
                "\u2581\u0441\u0440\u0435\u0434\u0438",
                -8.43478775024414
            ],
            [
                "\u2581\u043e\u0441\u043d\u043e\u0432\u043d\u044b\u0445",
                -8.373193740844727
            ],
            [
                "\u2581When",
                -8.92541790008545
            ],
            [
                "\u2581matter",
                -8.580665588378906
            ],
            [
                "\u0448\u0430",
                -9.677899360656738
            ],
            [
                "\u0436\u0435",
                -9.447515487670898
            ],
            [
                "\u2581justice",
                -8.404623985290527
            ],
            [
                "CN",
                -8.797663688659668
            ],
            [
                "\u2581\u044d\u0442\u0443",
                -8.749916076660156
            ],
            [
                "\u2581\u043c\u043e\u0433\u0443",
                -10.965814590454102
            ],
            [
                "\u2581major",
                -8.371233940124512
            ],
            [
                "\u2581\u043e\u0441\u0443\u0449\u0435\u0441\u0442\u0432\u043b\u0435\u043d\u0438\u0438",
                -8.349143028259277
            ],
            [
                "\u2581\u043c\u0435\u0441\u0442\u043e",
                -8.63500690460205
            ],
            [
                "\u2581reporting",
                -8.414742469787598
            ],
            [
                "\u2581private",
                -8.401009559631348
            ],
            [
                "\u2581With",
                -8.511747360229492
            ],
            [
                "\u044b\u043c\u0438",
                -8.337316513061523
            ],
            [
                "\u2581\u043d\u0430\u0441\u0442\u043e\u044f\u0449\u0435\u0435",
                -8.378885269165039
            ],
            [
                "\u0434\u0443\u043c\u0430",
                -10.887073516845703
            ],
            [
                "WP",
                -8.965763092041016
            ],
            [
                "\u0442\u0435",
                -9.371862411499023
            ],
            [
                "\u2581\u0415\u0433\u043e",
                -9.015256881713867
            ],
            [
                "\u2581e",
                -9.22110366821289
            ],
            [
                "\u2581\u0441\u0440\u0435\u0434\u044b",
                -8.42016887664795
            ],
            [
                "\u2581expressed",
                -8.311790466308594
            ],
            [
                "\u2581U",
                -9.816781997680664
            ],
            [
                "\u2581March",
                -8.43303394317627
            ],
            [
                "\u2581\u0432\u044b\u0448\u0435",
                -8.427999496459961
            ],
            [
                "\u2581statement",
                -8.329610824584961
            ],
            [
                "\u2581\u043e\u0431\u0435\u0441\u043f\u0435\u0447\u0435\u043d\u0438\u044e",
                -8.400503158569336
            ],
            [
                "\u2581mandate",
                -8.357748985290527
            ],
            [
                "\u2581therefore",
                -8.346256256103516
            ],
            [
                "\u2581\u0443\u0447\u0440\u0435\u0436\u0434\u0435\u043d\u0438\u0439",
                -8.43588638305664
            ],
            [
                "\u043a\u043e",
                -9.179741859436035
            ],
            [
                "\u2581great",
                -8.895106315612793
            ],
            [
                "\u2581\u0441\u0447\u0435\u0442",
                -8.507818222045898
            ],
            [
                "\u2581\u0447\u0438\u0441\u043b\u0430",
                -8.51909065246582
            ],
            [
                "\u2581i",
                -9.110373497009277
            ],
            [
                "\u0441\u044c",
                -9.60264778137207
            ],
            [
                "\u2581Article",
                -8.27337646484375
            ],
            [
                "\u0435\u043d\u044c",
                -10.51237678527832
            ],
            [
                "\u2581Executive",
                -8.398869514465332
            ],
            [
                "\u043e\u0441\u0442\u044c",
                -8.629796028137207
            ],
            [
                "\u2581\u043e\u0434\u043d\u043e\u0439",
                -8.472697257995605
            ],
            [
                "\u2581\u0442\u0430\u043a\u0438\u043c",
                -8.505199432373047
            ],
            [
                "\u2581Declaration",
                -8.306615829467773
            ],
            [
                "\u2581continued",
                -8.416031837463379
            ],
            [
                "\u2581believe",
                -9.097426414489746
            ],
            [
                "\u2581\u043f\u043e\u043b\u043e\u0436\u0435\u043d\u0438\u0439",
                -8.352907180786133
            ],
            [
                "\u2581comprehensive",
                -8.353020668029785
            ],
            [
                "P",
                -9.03493881225586
            ],
            [
                "\u2581\u0433\u0440\u0443\u043f\u043f",
                -8.439549446105957
            ],
            [
                "\u2581projects",
                -8.43964958190918
            ],
            [
                "\u2581included",
                -8.389814376831055
            ],
            [
                "\u2581Report",
                -8.435324668884277
            ],
            [
                "\u2581\u043e\u0442\u043c\u0435\u0447\u0430\u0435\u0442",
                -8.419889450073242
            ],
            [
                "\u2581THE",
                -9.483448028564453
            ],
            [
                "\u2581domestic",
                -8.407294273376465
            ],
            [
                "\u2581establishment",
                -8.396829605102539
            ],
            [
                "\u043d\u044b",
                -8.921126365661621
            ],
            [
                "\u2581\u0441\u043e\u0434\u0435\u0439\u0441\u0442\u0432\u0438\u044f",
                -8.42495059967041
            ],
            [
                "\u2581\u041a\u043e\u0433\u0434\u0430",
                -9.27865219116211
            ],
            [
                "\u2581\u043c\u0430\u044f",
                -8.531390190124512
            ],
            [
                "\u043e\u0431",
                -9.288434028625488
            ],
            [
                "\u2581100",
                -9.335247993469238
            ],
            [
                "\u2581\u0435\u0451",
                -11.434565544128418
            ],
            [
                "\u2581February",
                -8.554719924926758
            ],
            [
                "\u2581small",
                -8.479753494262695
            ],
            [
                "\u2581\u043a\u043e\u043d\u0442\u0435\u043a\u0441\u0442\u0435",
                -8.367609024047852
            ],
            [
                "\u2581\u041e\u041e\u041d",
                -8.465815544128418
            ],
            [
                "\u2581\u0441\u0442\u0440\u0430\u043d\u0430\u043c",
                -8.373730659484863
            ],
            [
                "\u2581\u043c\u0435\u0440\u043e\u043f\u0440\u0438\u044f\u0442\u0438\u0439",
                -8.512319564819336
            ],
            [
                "\u2581\u044f\u043d\u0432\u0430\u0440\u044f",
                -8.589888572692871
            ],
            [
                "\u2581\u043d\u0438\u0447\u0435\u0433\u043e",
                -10.243864059448242
            ],
            [
                "\u0442\u044c\u0441\u044f",
                -8.983713150024414
            ],
            [
                "\u2581\u0440\u0430\u0431\u043e\u0442\u0430",
                -8.801660537719727
            ],
            [
                "\u2581existing",
                -8.395685195922852
            ],
            [
                "\u2581environment",
                -8.410151481628418
            ],
            [
                "\u2581\u0431",
                -9.329499244689941
            ],
            [
                "un",
                -9.406479835510254
            ],
            [
                "\u2581civil",
                -8.426823616027832
            ],
            [
                "\u2581agencies",
                -8.403136253356934
            ],
            [
                "\u2581assessment",
                -8.422674179077148
            ],
            [
                "\u2581\u042d\u0442\u0438",
                -8.493855476379395
            ],
            [
                "\u2581\u043f\u043e\u0442\u043e\u043c\u0443",
                -9.523433685302734
            ],
            [
                "\u2581procedure",
                -8.400941848754883
            ],
            [
                "\u2581meet",
                -8.712285995483398
            ],
            [
                "\u2581\u043e\u043f\u0435\u0440\u0430\u0446\u0438\u0439",
                -8.465104103088379
            ],
            [
                "\u2581\u0441\u043e\u0437\u0434\u0430\u043d\u0438\u044f",
                -8.436625480651855
            ],
            [
                "\u0439\u0442\u0435",
                -10.10940933227539
            ],
            [
                "\u2581\u0412\u043e\u0442",
                -10.534537315368652
            ],
            [
                "\u2581\u0440\u0430\u0441\u0441\u043c\u043e\u0442\u0440\u0435\u043d\u0438\u0435",
                -8.377361297607422
            ],
            [
                "\u2581\u0433\u043e\u0441\u0443\u0434\u0430\u0440\u0441\u0442\u0432\u043e",
                -8.444412231445312
            ],
            [
                "\u2581\u0430\u043f\u0440\u0435\u043b\u044f",
                -8.504637718200684
            ],
            [
                "\u25812.",
                -10.521613121032715
            ],
            [
                "\u2581\u0410\u0441\u0441\u0430\u043c\u0431\u043b\u0435\u044f",
                -8.42518424987793
            ],
            [
                "\u0443\u0442",
                -9.772005081176758
            ],
            [
                "\u2581\u043e\u0434\u043d\u043e\u0433\u043e",
                -8.610247611999512
            ],
            [
                "\u2581decisions",
                -8.432940483093262
            ],
            [
                "\u2581\u0438\u043d\u0442\u0435\u0440\u0435\u0441\u0430\u0445",
                -8.39407730102539
            ],
            [
                "\u2581\u0413\u0440\u0443\u043f\u043f\u0430",
                -8.4212007522583
            ],
            [
                "\u2581home",
                -9.29271125793457
            ],
            [
                "\u2581\u0421\u043f\u0430\u0441\u0438\u0431\u043e",
                -12.598719596862793
            ],
            [
                "\u2581obligations",
                -8.381783485412598
            ],
            [
                "\u0438\u0441\u044c",
                -9.267172813415527
            ],
            [
                "\u2581regarding",
                -8.433048248291016
            ],
            [
                "\u2581\u0441\u043e\u0442\u0440\u0443\u0434\u043d\u0438\u0447\u0435\u0441\u0442\u0432\u043e",
                -8.410521507263184
            ],
            [
                "\u2581\u0441\u043e\u0432\u0435\u0449\u0430\u043d\u0438\u044f",
                -8.4288969039917
            ],
            [
                "\u2581fully",
                -8.379803657531738
            ],
            [
                "\u2581addressed",
                -8.367027282714844
            ],
            [
                "\u2581conditions",
                -8.429725646972656
            ],
            [
                "\u2581\u0440\u0435\u043a\u043e\u043c\u0435\u043d\u0434\u0430\u0446\u0438\u0439",
                -8.486175537109375
            ],
            [
                "\u2581\u0420\u0430\u0431\u043e\u0447\u0435\u0439",
                -8.359602928161621
            ],
            [
                "\u2581annex",
                -8.375029563903809
            ],
            [
                "\u2581\u0431\u043e\u0440\u044c\u0431\u044b",
                -8.370481491088867
            ],
            [
                "\u2581entitled",
                -8.416889190673828
            ],
            [
                "\u0451\u043c",
                -11.250335693359375
            ],
            [
                "\u2581cost",
                -8.634196281433105
            ],
            [
                "\u2581\u0432\u043e\u0437\u043c\u043e\u0436\u043d\u043e",
                -8.553292274475098
            ],
            [
                "\u2581problems",
                -8.40673828125
            ],
            [
                "\u2581things",
                -9.257307052612305
            ],
            [
                "\u2581\u0438\u043c\u0435\u044e\u0442",
                -8.45445728302002
            ],
            [
                "\u2581follow",
                -8.552536964416504
            ],
            [
                "\u2581Is",
                -10.331391334533691
            ],
            [
                "\u2581adoption",
                -8.442645072937012
            ],
            [
                "\u2581\u0441\u0442\u0440\u0430\u043d\u0435",
                -8.457915306091309
            ],
            [
                "\u2581\u043c\u043e\u0439",
                -10.419054985046387
            ],
            [
                "\u2581\u043a\u0430\u0441\u0430\u044e\u0449\u0438\u0445\u0441\u044f",
                -8.455278396606445
            ],
            [
                "\u0440\u0430",
                -9.229090690612793
            ],
            [
                "\u2581\u0438\u043d\u0444\u043e\u0440\u043c\u0430\u0446\u0438\u044f",
                -8.478321075439453
            ],
            [
                "\u2581Affairs",
                -8.449312210083008
            ],
            [
                "\u2581\u043e\u0431\u044f\u0437\u0430\u0442\u0435\u043b\u044c\u0441\u0442\u0432",
                -8.440339088439941
            ],
            [
                "\u2581\u0438\u0437\u043c\u0435\u043d\u0435\u043d\u0438\u044f",
                -8.510808944702148
            ],
            [
                "\u2581\u043d\u0435\u043e\u0431\u0445\u043e\u0434\u0438\u043c\u043e\u0441\u0442\u044c",
                -8.404158592224121
            ],
            [
                "\u2581light",
                -8.58238410949707
            ],
            [
                ".5",
                -9.192159652709961
            ],
            [
                "\u2581Ministry",
                -8.491482734680176
            ],
            [
                "\u2581key",
                -8.541500091552734
            ],
            [
                "\u2581de",
                -8.83637523651123
            ],
            [
                "\u2581five",
                -8.654916763305664
            ],
            [
                "\u2581\u0444\u0438\u043d\u0430\u043d\u0441\u0438\u0440\u043e\u0432\u0430\u043d\u0438\u044f",
                -8.496885299682617
            ],
            [
                "\u0433",
                -9.142644882202148
            ],
            [
                "\u2581practices",
                -8.452665328979492
            ],
            [
                "\u2581UN",
                -8.802419662475586
            ],
            [
                "\u2581age",
                -8.764372825622559
            ],
            [
                "\u2581\u043a\u043e\u043e\u0440\u0434\u0438\u043d\u0430\u0446\u0438\u0438",
                -8.506068229675293
            ],
            [
                "\u2581\u0420\u0435\u0441\u043f\u0443\u0431\u043b\u0438\u043a\u0438",
                -8.490215301513672
            ],
            [
                "\u2581terms",
                -8.469514846801758
            ],
            [
                "\u2581\u0440\u0430\u0437\u0440\u0430\u0431\u043e\u0442\u043a\u0438",
                -8.506093978881836
            ],
            [
                "\u2581agreement",
                -8.408651351928711
            ],
            [
                "\u2581\u043e\u043d\u043e",
                -8.629015922546387
            ],
            [
                "\u2581\u043f\u0440\u043e\u0434\u043e\u043b\u0436\u0430\u0442\u044c",
                -8.46811580657959
            ],
            [
                "\u2581\u0441\u0432\u043e\u0435",
                -8.48401927947998
            ],
            [
                "%",
                -8.820493698120117
            ],
            [
                "\u2581\u0441\u0442\u0440\u0430\u0442\u0435\u0433\u0438\u0438",
                -8.471174240112305
            ],
            [
                "\u2581technology",
                -8.536498069763184
            ],
            [
                "\u2581\u043c\u043e\u0433\u043b\u0438",
                -8.696511268615723
            ],
            [
                "\u25811993",
                -9.663383483886719
            ],
            [
                "\u2581\u0434\u0430\u043d\u043d\u044b\u0435",
                -8.520452499389648
            ],
            [
                "\u2581yet",
                -8.824901580810547
            ],
            [
                "\u2581principles",
                -8.42284870147705
            ],
            [
                "\u2581risk",
                -8.590198516845703
            ],
            [
                "\u2581One",
                -8.77736759185791
            ],
            [
                "\u2581amount",
                -8.481050491333008
            ],
            [
                "\u2581service",
                -8.505107879638672
            ],
            [
                "\u2581around",
                -9.284411430358887
            ],
            [
                "\u2581\u043f\u0440\u043e\u0446\u0435\u0441\u0441",
                -8.44789981842041
            ],
            [
                "\u2581\u043d\u0438\u043a\u043e\u0433\u0434\u0430",
                -9.700835227966309
            ],
            [
                "\u2581\u043b\u0438\u0446\u0430",
                -8.505014419555664
            ],
            [
                "\u2581application",
                -8.45547866821289
            ],
            [
                "\u2581\u043d\u0435\u0441\u043a\u043e\u043b\u044c\u043a\u043e",
                -8.738487243652344
            ],
            [
                "\u2581\u0447\u0438\u0441\u043b\u043e",
                -8.4929780960083
            ],
            [
                "\u2581\u043a\u043e",
                -9.153717994689941
            ],
            [
                "\u2581\u041c\u0435\u0436\u0434\u0443\u043d\u0430\u0440\u043e\u0434\u043d\u043e\u0433\u043e",
                -8.441841125488281
            ],
            [
                "\u2581\u0431\u044e\u0434\u0436\u0435\u0442\u0430",
                -8.54027271270752
            ],
            [
                "\u2581\u0440\u0430\u0441",
                -9.402959823608398
            ],
            [
                "\u2581\u0420\u0430\u0431\u043e\u0447\u0430\u044f",
                -8.430644989013672
            ],
            [
                "\u2581\u0441\u0435\u0431\u0435",
                -9.095040321350098
            ],
            [
                "\u043d\u044f",
                -9.710392951965332
            ],
            [
                "\u2581\u044d\u0442\u0430",
                -8.777016639709473
            ],
            [
                "\u0441\u0442",
                -9.201639175415039
            ],
            [
                "\u2581\u043a\u0430\u0442\u0435\u0433\u043e\u0440\u0438\u0438",
                -8.579122543334961
            ],
            [
                "\u2581\u0442\u0430\u043a\u043e\u0433\u043e",
                -8.594027519226074
            ],
            [
                "\u2581responsibility",
                -8.417152404785156
            ],
            [
                "\u2581due",
                -8.569324493408203
            ],
            [
                "\u2581coordination",
                -8.522420883178711
            ],
            [
                "\u2581contributions",
                -8.496819496154785
            ],
            [
                "\u2581\u041f\u043e\u0447\u0435\u043c\u0443",
                -9.840304374694824
            ],
            [
                "\u043d\u0438\u0431\u0443\u0434\u044c",
                -11.67430305480957
            ],
            [
                ".3",
                -9.126066207885742
            ],
            [
                "\u2581transport",
                -8.464760780334473
            ],
            [
                "\u2581\u042d",
                -9.454514503479004
            ],
            [
                "\u2581\u0434\u043e\u043a\u0443\u043c\u0435\u043d\u0442",
                -8.441662788391113
            ],
            [
                "\u2581\u043d\u0435\u043f\u0440\u0430\u0432\u0438\u0442\u0435\u043b\u044c",
                -8.502861976623535
            ],
            [
                "\u2581South",
                -8.607040405273438
            ],
            [
                "\u2581consultations",
                -8.45058536529541
            ],
            [
                "\u2581Who",
                -10.850578308105469
            ],
            [
                "\u2581energy",
                -8.577779769897461
            ],
            [
                "\u041a",
                -8.814153671264648
            ],
            [
                "\u2581\u043e\u0431\u0449\u0435\u0441\u0442\u0432\u0430",
                -8.488285064697266
            ],
            [
                "\u2581increased",
                -8.504494667053223
            ],
            [
                "\u2581Now",
                -10.496543884277344
            ],
            [
                "\u2581equipment",
                -8.666862487792969
            ],
            [
                "\u2581personnel",
                -8.649821281433105
            ],
            [
                "\u2581\u0437\u0430\u0441\u0435\u0434\u0430\u043d\u0438\u0439",
                -8.541905403137207
            ],
            [
                "\u2581mechanisms",
                -8.510125160217285
            ],
            [
                "\u2581thought",
                -10.102309226989746
            ],
            [
                "to",
                -8.944555282592773
            ],
            [
                "\u2581away",
                -9.751232147216797
            ],
            [
                "\u2581\u0441\u043e\u043e\u0442\u0432\u0435\u0442\u0441\u0442\u0432\u0443\u044e\u0449\u0438\u0435",
                -8.483436584472656
            ],
            [
                "\u2581Let",
                -10.032675743103027
            ],
            [
                "\u2581\u0437\u0430\u0449\u0438\u0442\u0435",
                -8.510953903198242
            ],
            [
                "\u2581rule",
                -8.405670166015625
            ],
            [
                "\u2581\u0441\u0435\u0433\u043e\u0434\u043d\u044f",
                -8.997467994689941
            ],
            [
                "\u2581\u0432\u0441\u0435\u0433\u0434\u0430",
                -9.241427421569824
            ],
            [
                "\u2581\u0433\u043e\u0441\u0443\u0434\u0430\u0440\u0441\u0442\u0432\u0430\u043c\u0438",
                -8.506909370422363
            ],
            [
                "\u2581Advisory",
                -8.622872352600098
            ],
            [
                "\u2581\u0441\u0432\u043e\u0439",
                -8.786351203918457
            ],
            [
                "\u2581\u043f\u0440\u0430\u0432\u0430\u0445",
                -8.561884880065918
            ],
            [
                "\u2581\u0432\u044b\u043f\u043e\u043b\u043d\u0435\u043d\u0438\u044f",
                -8.493855476379395
            ],
            [
                "\u2581\u0442\u0440\u0438",
                -8.754171371459961
            ],
            [
                "\u2581\u043f\u0440\u0435\u0434\u0441\u0442\u0430\u0432\u0438\u0442\u0435\u043b\u0435\u0439",
                -8.518682479858398
            ],
            [
                "\u2581\u0443\u0441\u0438\u043b\u0438\u0439",
                -8.442612648010254
            ],
            [
                "\u2581\u0443\u0441\u0442\u043e\u0439\u0447\u0438\u0432\u043e\u0433\u043e",
                -8.597760200500488
            ],
            [
                "\u2581\u0444\u0438\u043d\u0430\u043d\u0441\u043e\u0432\u044b\u0445",
                -8.527082443237305
            ],
            [
                "\u258145",
                -9.577113151550293
            ],
            [
                "\u0434\u043e",
                -9.14940071105957
            ],
            [
                "\u2581response",
                -8.518884658813477
            ],
            [
                "\u258100",
                -8.833073616027832
            ],
            [
                "\u2581problem",
                -8.699275016784668
            ],
            [
                "\u2581recent",
                -8.448539733886719
            ],
            [
                "\u2581\u044d\u0444\u0444\u0435\u043a\u0442\u0438\u0432\u043d\u043e\u0441\u0442\u0438",
                -8.557405471801758
            ],
            [
                "\u2581always",
                -9.337401390075684
            ],
            [
                "\u2581\u043b\u0443\u0447\u0448\u0435",
                -9.57986068725586
            ],
            [
                "\u2581victims",
                -8.570409774780273
            ],
            [
                "\u2581\u041f\u043e\u0441\u043b\u0435",
                -8.699374198913574
            ],
            [
                "\u0435\u043d\u0438\u044f",
                -9.360060691833496
            ],
            [
                "\u043b\u044c",
                -9.299684524536133
            ],
            [
                "\u2581until",
                -8.939682960510254
            ],
            [
                "\u0431\u0430",
                -9.447726249694824
            ],
            [
                "\u2581matters",
                -8.546510696411133
            ],
            [
                "\u2581\u044f\u0434\u0435\u0440\u043d\u043e\u0433\u043e",
                -8.58069133758545
            ],
            [
                "\u0438\u0437",
                -9.100252151489258
            ],
            [
                "\u2581discussion",
                -8.4638090133667
            ],
            [
                "\u2581\u043e\u0440\u0433\u0430\u043d\u0438\u0437\u0430\u0446\u0438\u044f\u043c\u0438",
                -8.525813102722168
            ],
            [
                "\u2581\u0438\u043c\u0435\u043d\u0438",
                -8.495518684387207
            ],
            [
                "\u2581clear",
                -8.703692436218262
            ],
            [
                "\u2581\u0446\u0435\u043b\u043e\u043c",
                -8.524758338928223
            ],
            [
                "\u2581\u0432\u043e\u043f\u0440\u043e\u0441\u0430",
                -8.45549201965332
            ],
            [
                "\u2581\u043f\u043e\u0442\u0440\u0435\u0431\u043d\u043e\u0441\u0442\u0435\u0439",
                -8.650622367858887
            ],
            [
                "T",
                -9.636693954467773
            ],
            [
                "\u0448",
                -9.46533489227295
            ],
            [
                "\u2581OF",
                -9.596883773803711
            ],
            [
                "\u2581\u043d\u0438\u043c\u0438",
                -8.779791831970215
            ],
            [
                "\u266a",
                -20.021312713623047
            ],
            [
                "\u2581\u0432\u043e\u0437\u043c\u043e\u0436\u043d\u043e\u0441\u0442\u0435\u0439",
                -8.624245643615723
            ],
            [
                "\u2581food",
                -8.698227882385254
            ],
            [
                "\u2581night",
                -10.442279815673828
            ],
            [
                "AC",
                -9.126690864562988
            ],
            [
                "\u2581provides",
                -8.536938667297363
            ],
            [
                "st",
                -9.304848670959473
            ],
            [
                "\u2581\u043a\u0430\u0441\u0430\u044e\u0449\u0438\u0435\u0441\u044f",
                -8.544974327087402
            ],
            [
                "\u043b\u0430\u0441\u044c",
                -9.281720161437988
            ],
            [
                "\u2581improve",
                -8.542081832885742
            ],
            [
                "\u2581\u043a\u043e\u0442\u043e\u0440\u044b\u043c",
                -8.641079902648926
            ],
            [
                "\u2581\u0435\u0439",
                -9.352954864501953
            ],
            [
                "\u25812014",
                -12.113175392150879
            ],
            [
                "\u2581implement",
                -8.5108642578125
            ],
            [
                "uck",
                -12.25291919708252
            ],
            [
                "\u2581Union",
                -8.45612907409668
            ],
            [
                "\u2581having",
                -8.807659149169922
            ],
            [
                "\u2581W",
                -10.0194091796875
            ],
            [
                "\u0447\u0438",
                -9.502640724182129
            ],
            [
                "\u2581\u043e\u0431\u0435\u0441\u043f\u0435\u0447\u0435\u043d\u0438\u0435",
                -8.583414077758789
            ],
            [
                "\u2581\u0447\u0435\u0433\u043e",
                -9.3187837600708
            ],
            [
                "ers",
                -9.20013427734375
            ],
            [
                "\u2581\u0432\u043c\u0435\u0441\u0442\u0435",
                -9.083395957946777
            ],
            [
                "\u2581para",
                -8.513153076171875
            ],
            [
                "\u2581Don",
                -11.877949714660645
            ],
            [
                "\u2581business",
                -8.81270980834961
            ],
            [
                "\u2581\u0413\u0440\u0443\u043f\u043f\u044b",
                -8.522359848022461
            ],
            [
                "\u2581\u0421\u0442\u043e\u0440\u043e\u043d",
                -8.556133270263672
            ],
            [
                "\u2581name",
                -9.22755241394043
            ],
            [
                "\u2581\u043e\u0434\u043d\u0430\u043a\u043e",
                -8.555774688720703
            ],
            [
                "\u2581days",
                -8.941798210144043
            ],
            [
                "\u2581\u0440\u0430\u0437\u0440\u0430\u0431\u043e\u0442\u043a\u0435",
                -8.587940216064453
            ],
            [
                "\u2581crime",
                -8.634572982788086
            ],
            [
                "\u2581point",
                -8.764333724975586
            ],
            [
                "\u2581His",
                -9.260479927062988
            ],
            [
                "\u2581documents",
                -8.539298057556152
            ],
            [
                "\u2581\u0421\u043f\u0435\u0446\u0438\u0430\u043b\u044c\u043d\u044b\u0439",
                -8.60273265838623
            ],
            [
                "\u2581O",
                -9.68152904510498
            ],
            [
                "\u044e\u0442\u0441\u044f",
                -8.693562507629395
            ],
            [
                "\u0435\u043d",
                -9.211206436157227
            ],
            [
                "\u2581Palestinian",
                -8.358868598937988
            ],
            [
                "\u0432\u0438\u043d",
                -9.880729675292969
            ],
            [
                "\u2581\u043f\u043e\u043b\u043e\u0436\u0435\u043d\u0438\u0435",
                -8.560434341430664
            ],
            [
                "\u258135",
                -9.673089981079102
            ],
            [
                "k",
                -9.517643928527832
            ],
            [
                "\u2581\u0442\u0440\u0443\u0434\u0430",
                -8.616958618164062
            ],
            [
                "\u2581\u043f\u0440\u043e\u0446\u0435\u043d\u0442\u0430",
                -8.624821662902832
            ],
            [
                "\u2581\u043f\u043e\u0432\u044b\u0448\u0435\u043d\u0438\u044f",
                -8.63606071472168
            ],
            [
                "\u2581\u043b\u0438\u043a\u0432\u0438\u0434\u0430\u0446\u0438\u0438",
                -8.567427635192871
            ],
            [
                "\u2581\u0441\u043b\u0435\u0434\u0443\u044e\u0449\u0438\u0435",
                -8.558892250061035
            ],
            [
                "\u2581\u043b\u0438\u0431\u043e",
                -8.627745628356934
            ],
            [
                "\u2581\u043f\u0440\u043e\u0435\u043a\u0442\u043e\u0432",
                -8.632644653320312
            ],
            [
                "\u2581especially",
                -8.515721321105957
            ],
            [
                "\u2581\u0433\u043e\u0441\u0443\u0434\u0430\u0440\u0441\u0442\u0432\u0430\u043c",
                -8.57010555267334
            ],
            [
                "\u2581\u0441\u043a\u0430\u0437\u0430\u0442\u044c",
                -9.86884880065918
            ],
            [
                "\u2581reported",
                -8.618212699890137
            ],
            [
                "\u2581\u0440\u0435\u0431\u0435\u043d\u043a\u0430",
                -8.689163208007812
            ],
            [
                "\u2581space",
                -8.56851863861084
            ],
            [
                "\u2581several",
                -8.59040355682373
            ],
            [
                "\u2581become",
                -8.590841293334961
            ],
            [
                "\u2581\u0440\u0435\u0433\u0438\u043e\u043d\u0430\u043b\u044c\u043d\u044b\u0445",
                -8.60136890411377
            ],
            [
                "\u2581strengthen",
                -8.522422790527344
            ],
            [
                "\u2581\u0440\u0435\u0430\u043b\u0438\u0437\u0430\u0446\u0438\u0438",
                -8.590798377990723
            ],
            [
                "\u2581example",
                -8.441094398498535
            ],
            [
                "governmental",
                -8.551417350769043
            ],
            [
                "\u2581prepared",
                -8.60984992980957
            ],
            [
                "\u2581\u0428",
                -9.3321533203125
            ],
            [
                "\u2581anything",
                -10.87917709350586
            ],
            [
                "\u2581\u043f\u0440\u0435\u0434\u0441\u0442\u0430\u0432\u043b\u0435\u043d\u0438\u044f",
                -8.601094245910645
            ],
            [
                "\u2581practice",
                -8.573801040649414
            ],
            [
                "4",
                -9.175614356994629
            ],
            [
                "\u2581four",
                -8.796900749206543
            ],
            [
                "\u2581Representative",
                -8.472744941711426
            ],
            [
                "\u2581wish",
                -8.67784309387207
            ],
            [
                "\u2581post",
                -8.686810493469238
            ],
            [
                "\u2581production",
                -8.681838989257812
            ],
            [
                "\u2581\u043f\u043e\u0434\u0434\u0435\u0440\u0436\u0430\u043d\u0438\u044e",
                -8.582245826721191
            ],
            [
                "\u2581body",
                -8.81159496307373
            ],
            [
                "\u2581\u0442\u043e\u043c\u0443",
                -8.809715270996094
            ],
            [
                "\u2581\u043f\u0440\u0435\u0434\u0443\u0441\u043c\u0430\u0442\u0440\u0438\u0432\u0430\u0435\u0442",
                -8.575900077819824
            ],
            [
                "\u2581\u043a\u043e\u043d\u0444\u0435\u0440\u0435\u043d\u0446\u0438\u0438",
                -8.579026222229004
            ],
            [
                "\u2581\u0442\u0430\u043a\u043e\u0435",
                -9.140949249267578
            ],
            [
                "\u042f",
                -9.471375465393066
            ],
            [
                "\u2581whole",
                -8.981865882873535
            ],
            [
                "\u2581\u0442\u043e\u0436\u0435",
                -10.406844139099121
            ],
            [
                "\u0438\u0441\u0442",
                -9.893412590026855
            ],
            [
                "\u2581\u043f\u0440\u0435\u0434\u043b\u043e\u0436\u0435\u043d\u0438\u044f",
                -8.566274642944336
            ],
            [
                "\u2581\u0443\u043a\u0440\u0435\u043f\u043b\u0435\u043d\u0438\u044f",
                -8.569172859191895
            ],
            [
                "\u2581\u043a\u043e\u0442\u043e\u0440\u0443\u044e",
                -8.724910736083984
            ],
            [
                "\u2581\u0445\u0430\u0440\u0430\u043a\u0442\u0435\u0440",
                -8.578428268432617
            ],
            [
                "\u2581told",
                -10.20372200012207
            ],
            [
                "\u2581free",
                -8.759611129760742
            ],
            [
                "\u2581able",
                -8.744283676147461
            ],
            [
                "\u2581\u0437\u0434\u043e\u0440\u043e\u0432\u044c\u044f",
                -8.631855964660645
            ],
            [
                "\u2581common",
                -8.59115219116211
            ],
            [
                "\u2581date",
                -8.676596641540527
            ],
            [
                "\u2581K",
                -9.360672950744629
            ],
            [
                "\u2581\u043c\u0438\u0440\u0435",
                -8.70328140258789
            ],
            [
                "\u2581August",
                -8.613834381103516
            ],
            [
                "\u2581proposal",
                -8.558930397033691
            ],
            [
                "\u2581today",
                -8.862894058227539
            ],
            [
                "\u2581\u043e\u0431\u044f\u0437\u0430\u0442\u0435\u043b\u044c\u0441\u0442\u0432\u0430",
                -8.536693572998047
            ],
            [
                "term",
                -8.608603477478027
            ],
            [
                "\u2581\u0418\u0437",
                -9.220626831054688
            ],
            [
                "\u2581school",
                -8.951412200927734
            ],
            [
                "\u0430\u0442\u044c",
                -9.467320442199707
            ],
            [
                "\u2581\u0441\u0442\u0440\u0430\u043d\u0430\u043c\u0438",
                -8.581830978393555
            ],
            [
                "\u2581\u0443\u0447\u0430\u0441\u0442\u0438\u044f",
                -8.588483810424805
            ],
            [
                "\u2581An",
                -8.830537796020508
            ],
            [
                "\u2581Mission",
                -8.692276000976562
            ],
            [
                "\u2581\u041f\u043e\u044d\u0442\u043e\u043c\u0443",
                -8.572545051574707
            ],
            [
                "\u2581funds",
                -8.570777893066406
            ],
            [
                "\u2581\u0438\u043c\u044f",
                -8.738243103027344
            ],
            [
                "based",
                -8.635531425476074
            ],
            [
                "\u2581leave",
                -9.440576553344727
            ],
            [
                "\u2581\u043a\u0430\u043a\u043e\u0439",
                -8.922080993652344
            ],
            [
                "\u2581regular",
                -8.62328815460205
            ],
            [
                "\u2581main",
                -8.631016731262207
            ],
            [
                "\u2581\u0440\u0430\u0441\u0441\u043c\u043e\u0442\u0440\u0435\u0442\u044c",
                -8.57007122039795
            ],
            [
                "\u2581third",
                -8.619770050048828
            ],
            [
                "\u2581planning",
                -8.731698036193848
            ],
            [
                "\u2581however",
                -8.539596557617188
            ],
            [
                "\u2581\u0445\u043e\u0442\u044f",
                -8.723860740661621
            ],
            [
                "\u2581serious",
                -8.708402633666992
            ],
            [
                "\u2581Chairman",
                -8.45642375946045
            ],
            [
                "\u2581\u0437\u0440\u0435\u043d\u0438\u044f",
                -8.598694801330566
            ],
            [
                "the",
                -8.61929702758789
            ],
            [
                "\u0440\u0443",
                -9.377693176269531
            ],
            [
                "\u2581kind",
                -9.547867774963379
            ],
            [
                "\u2581research",
                -8.667511940002441
            ],
            [
                "\u2581armed",
                -8.546040534973145
            ],
            [
                "\u2581position",
                -8.678861618041992
            ],
            [
                "\u2581\u043d\u0430\u0434\u043e",
                -10.654800415039062
            ],
            [
                "\u2581recommended",
                -8.619813919067383
            ],
            [
                "\u2581prevention",
                -8.548360824584961
            ],
            [
                "\u2581\u0430\u0434\u043c\u0438\u043d\u0438\u0441\u0442\u0440\u0430\u0442\u0438\u0432\u043d\u044b",
                -8.708551406860352
            ],
            [
                "\u2581\u0441\u0438\u0441\u0442\u0435\u043c",
                -8.658090591430664
            ],
            [
                "\u2581challenges",
                -8.617402076721191
            ],
            [
                "\u2581open",
                -8.822029113769531
            ],
            [
                "\u2581develop",
                -8.569660186767578
            ],
            [
                "\u2581\u0442\u0435\u043f\u0435\u0440\u044c",
                -9.795310020446777
            ],
            [
                "\u2581\u0440\u0430\u0437\u043c\u0435\u0440\u0435",
                -8.875346183776855
            ],
            [
                "\u2581providing",
                -8.593704223632812
            ],
            [
                "\u2581\u0444\u0435\u0432\u0440\u0430\u043b\u044f",
                -8.780930519104004
            ],
            [
                "\u2581acts",
                -8.512500762939453
            ],
            [
                "\u2581\u0440\u0435\u0437\u0443\u043b\u044c\u0442\u0430\u0442\u043e\u0432",
                -8.616873741149902
            ],
            [
                "\u2581\u043a\u043e\u043d\u0432\u0435\u043d\u0446\u0438\u0438",
                -8.520024299621582
            ],
            [
                "\u2581sure",
                -10.422263145446777
            ],
            [
                "\u2581Just",
                -11.167963981628418
            ],
            [
                "\u2581\u0436\u0435\u043d\u0449\u0438\u043d\u044b",
                -8.725468635559082
            ],
            [
                "\u043c\u0430",
                -9.748899459838867
            ],
            [
                "\u2581\u0421\u043f\u0435\u0446\u0438\u0430\u043b\u044c\u043d\u043e\u0433\u043e",
                -8.550617218017578
            ],
            [
                "\u2581\u043d\u0435\u043e\u0431\u0445\u043e\u0434\u0438\u043c\u043e\u0441\u0442\u0438",
                -8.595915794372559
            ],
            [
                "\u043d\u0438\u0435",
                -9.0775146484375
            ],
            [
                "\u043b\u044e",
                -9.844780921936035
            ],
            [
                "\u2581\u0435\u0449\u0451",
                -11.991352081298828
            ],
            [
                "\u2581\u043f\u0440\u0430\u0432\u0438\u043b",
                -8.608960151672363
            ],
            [
                "\u2581\u043f\u0440\u0435",
                -9.316801071166992
            ],
            [
                "\u25813.",
                -10.798699378967285
            ],
            [
                "\u2581\u0440\u0435",
                -9.34035587310791
            ],
            [
                "oka",
                -12.990254402160645
            ],
            [
                "\u2581Are",
                -10.72711181640625
            ],
            [
                "\u258132",
                -9.781877517700195
            ],
            [
                "\u2581commitment",
                -8.525625228881836
            ],
            [
                "\u2581\u0434\u0435\u043b\u043e",
                -9.273843765258789
            ],
            [
                "\u2581ever",
                -9.80421257019043
            ],
            [
                "\u0442\u0438",
                -9.408902168273926
            ],
            [
                "\u2581\u043c\u0430\u0440\u0442\u0430",
                -8.698464393615723
            ],
            [
                "\u0435\u0440",
                -9.474749565124512
            ],
            [
                "\u2581\u043f\u043e\u0440",
                -9.056464195251465
            ],
            [
                "\u2581treatment",
                -8.623295783996582
            ],
            [
                "\u2581form",
                -8.624250411987305
            ],
            [
                "\u2581significant",
                -8.609439849853516
            ],
            [
                "\u2581\u0437\u0430\u0438\u043d\u0442\u0435\u0440\u0435\u0441\u043e\u0432\u0430\u043d\u043d\u044b",
                -8.707887649536133
            ],
            [
                "\u2581\u0434\u043e\u043a\u0443\u043c\u0435\u043d\u0442\u043e\u0432",
                -8.630620002746582
            ],
            [
                "\u2581land",
                -8.738096237182617
            ],
            [
                "\u2581\u043f\u043b\u0430\u043d\u0435",
                -8.652366638183594
            ],
            [
                "\u2581\u0420",
                -9.034540176391602
            ],
            [
                "\u2581\u043f\u0440\u0435\u0434",
                -9.155388832092285
            ],
            [
                "\u2581months",
                -8.877996444702148
            ],
            [
                "\u2581\u0443\u0440\u043e\u0432\u043d\u044f\u0445",
                -8.643845558166504
            ],
            [
                "\u0422",
                -9.180418014526367
            ],
            [
                "\u2581\u043e\u0431\u0441\u043b\u0443\u0436\u0438\u0432\u0430\u043d\u0438\u044f",
                -8.807663917541504
            ],
            [
                "\u2581proposals",
                -8.619623184204102
            ],
            [
                "\u2581\u0441\u0432\u0435\u0434\u0435\u043d\u0438\u044e",
                -8.590897560119629
            ],
            [
                "p",
                -9.744681358337402
            ],
            [
                "\u2581\u043f\u0435\u0440\u0438\u043e\u0434\u0430",
                -8.754677772521973
            ],
            [
                "\u2581co",
                -9.237885475158691
            ],
            [
                "\u2581line",
                -8.955782890319824
            ],
            [
                "\u2581Other",
                -8.708749771118164
            ],
            [
                "\u2581office",
                -8.896907806396484
            ],
            [
                "\u2581\u042d\u0442\u043e\u0442",
                -8.869118690490723
            ],
            [
                "\u2581keep",
                -9.473689079284668
            ],
            [
                "\u2581\u043b\u044e\u0434\u0438",
                -9.204182624816895
            ],
            [
                "\u2581Look",
                -12.261384010314941
            ],
            [
                "\u2581\u043f\u0440\u043e\u0432\u0435\u0434\u0435\u043d\u0438\u0435",
                -8.692891120910645
            ],
            [
                "\u2581strategy",
                -8.63363265991211
            ],
            [
                "\u041d",
                -9.151726722717285
            ],
            [
                "\u2581money",
                -9.411980628967285
            ],
            [
                "\u2581\u041a\u0442\u043e",
                -10.840543746948242
            ],
            [
                "\u2581\u0440\u0435\u043a\u043e\u043c\u0435\u043d\u0434\u0443\u0435\u0442",
                -8.651015281677246
            ],
            [
                "\u2581growth",
                -8.710372924804688
            ],
            [
                "\u2581\u043f\u0440\u0438\u043d\u0446\u0438\u043f\u043e\u0432",
                -8.650792121887207
            ],
            [
                "\u258148",
                -9.780999183654785
            ],
            [
                "\u2581Meeting",
                -8.657100677490234
            ],
            [
                "\u2581\u0441\u043e\u0437\u0434\u0430\u043d\u0438\u0435",
                -8.658227920532227
            ],
            [
                "\u2581text",
                -8.538714408874512
            ],
            [
                "\u2581\u043f\u0440\u043e\u0441\u0438\u0442",
                -8.603179931640625
            ],
            [
                "\u2581Criminal",
                -8.637725830078125
            ],
            [
                "\u2581\u043c\u0443\u0436\u0447\u0438\u043d",
                -8.822073936462402
            ],
            [
                "\u2581\u043f\u043b\u0430\u043d\u0430",
                -8.717818260192871
            ],
            [
                "\u2581\u043d\u0435\u043a\u043e\u0442\u043e\u0440\u044b\u0435",
                -8.636064529418945
            ],
            [
                "\u2581approved",
                -8.656545639038086
            ],
            [
                "\u2581\u0414\u043e\u043a\u043b\u0430\u0434",
                -8.733835220336914
            ],
            [
                "\u2581bring",
                -8.972479820251465
            ],
            [
                "\u2581\u0437\u0434\u0440\u0430\u0432\u043e\u043e\u0445\u0440\u0430\u043d\u0435\u043d\u0438\u044f",
                -8.664811134338379
            ],
            [
                "\u2581\u0415",
                -9.224151611328125
            ],
            [
                "\u2581past",
                -8.75648307800293
            ],
            [
                "\u258160",
                -9.649056434631348
            ],
            [
                "\u2581\u0434\u043e\u0441\u0442\u0443\u043f",
                -8.722567558288574
            ],
            [
                "\u2581\u0440\u0435\u0437\u0443\u043b\u044c\u0442\u0430\u0442\u044b",
                -8.661158561706543
            ],
            [
                "\u2581Some",
                -8.939630508422852
            ],
            [
                "\u2581performance",
                -8.723591804504395
            ],
            [
                "\u0414",
                -9.063102722167969
            ],
            [
                "\u2581government",
                -8.646844863891602
            ],
            [
                "\u2581actions",
                -8.62927532196045
            ],
            [
                "\u2581\u043f\u0443\u0442\u0438",
                -8.958405494689941
            ],
            [
                "\u2581far",
                -8.889518737792969
            ],
            [
                "\u2581\u0436",
                -11.06371021270752
            ],
            [
                "\u2581\u0441\u0442\u043e\u0440\u043e\u043d",
                -8.626823425292969
            ],
            [
                "\u2581carried",
                -8.674420356750488
            ],
            [
                "\u258133",
                -9.806073188781738
            ],
            [
                "H",
                -9.699601173400879
            ],
            [
                "\u2581questions",
                -8.752641677856445
            ],
            [
                "\u2581responsible",
                -8.684610366821289
            ],
            [
                "\u0436\u0434",
                -9.970342636108398
            ],
            [
                "\u258137",
                -9.737929344177246
            ],
            [
                "\u2581\u043c\u043e\u0433",
                -9.34665298461914
            ],
            [
                "\u2581promotion",
                -8.674466133117676
            ],
            [
                "\u2581IV",
                -9.869842529296875
            ],
            [
                "\u2581instruments",
                -8.638550758361816
            ],
            [
                "\u2581Code",
                -8.72895336151123
            ],
            [
                "\u2581administrative",
                -8.698240280151367
            ],
            [
                "\u2581\u0434\u0443\u043c\u0430\u044e",
                -11.61745834350586
            ],
            [
                "\u2581death",
                -8.963944435119629
            ],
            [
                "\u2581\u043f\u043e\u0447\u0435\u043c\u0443",
                -9.807358741760254
            ],
            [
                "\u25811990",
                -9.548726081848145
            ],
            [
                "\u2581\u0440\u0430\u0441\u0445\u043e\u0434\u044b",
                -8.893086433410645
            ],
            [
                "\u2581\u043e\u043a\u0430\u0437\u0430\u043d\u0438\u044f",
                -8.696136474609375
            ],
            [
                "\u2581section",
                -8.662984848022461
            ],
            [
                "\u2581disarmament",
                -8.661534309387207
            ],
            [
                "*",
                -9.66247844696045
            ],
            [
                "\u2581study",
                -8.59506893157959
            ],
            [
                "\u2581purpose",
                -8.619857788085938
            ],
            [
                "\u2581terrorism",
                -8.363286018371582
            ],
            [
                "\u2581quality",
                -8.694923400878906
            ],
            [
                "\u2581strengthening",
                -8.645647048950195
            ],
            [
                "\u2581\u043d\u0430\u0446\u0438\u043e\u043d\u0430\u043b\u044c\u043d\u043e\u043c",
                -8.67595386505127
            ],
            [
                "\u2581\u043e\u0442\u0432\u0435\u0442\u0441\u0442\u0432\u0435\u043d\u043d\u043e\u0441\u0442\u0438",
                -8.6206636428833
            ],
            [
                "\u2581\u043d\u0430\u0441\u0442\u043e\u044f\u0442\u0435\u043b\u044c\u043d\u043e",
                -8.59323787689209
            ],
            [
                "\u041e",
                -8.991507530212402
            ],
            [
                "\u2581involved",
                -8.675790786743164
            ],
            [
                "\u043a\u043e\u0439",
                -9.455252647399902
            ],
            [
                "\u2581\u0432\u043e\u0442",
                -10.690017700195312
            ],
            [
                "\u2581initiatives",
                -8.65098762512207
            ],
            [
                "\u2581\u0441\u043e\u0442\u0440\u0443\u0434\u043d\u0438\u0447\u0435\u0441\u0442\u0432\u0435",
                -8.670731544494629
            ],
            [
                "\u2581individual",
                -8.658754348754883
            ],
            [
                "\u0411",
                -9.125983238220215
            ],
            [
                "\u2581\u0437\u043d\u0430\u0435\u0448\u044c",
                -12.718634605407715
            ],
            [
                "\u2581\u043d\u0438\u0449\u0435\u0442\u044b",
                -8.59484577178955
            ],
            [
                "\u2581talk",
                -10.795486450195312
            ],
            [
                "\u2581rate",
                -8.804460525512695
            ],
            [
                "\u2581expected",
                -8.683225631713867
            ],
            [
                "\u2581Service",
                -8.76924991607666
            ],
            [
                "\u2581biennium",
                -8.689104080200195
            ],
            [
                "\u00bb.",
                -8.131134033203125
            ],
            [
                "\u2581\u043f\u043e\u043b\u043d\u043e\u0441\u0442\u044c\u044e",
                -8.728630065917969
            ],
            [
                "\u2581\u0434",
                -9.698490142822266
            ],
            [
                "\u2581\u0434\u043e\u043a\u043b\u0430\u0434\u043e\u0432",
                -8.72126579284668
            ],
            [
                "\u2581High",
                -8.70446491241455
            ],
            [
                "\u2581needed",
                -8.750670433044434
            ],
            [
                "\u258134",
                -9.847699165344238
            ],
            [
                "\u2581agreements",
                -8.653176307678223
            ],
            [
                "\u2581focus",
                -8.699339866638184
            ],
            [
                "\u2581\u043f\u043e\u0432\u043e\u0434\u0443",
                -8.799131393432617
            ],
            [
                "\u2581\u043f\u0440\u0435\u0434\u043b\u043e\u0436\u0435\u043d\u0438\u0435",
                -8.712140083312988
            ],
            [
                "\u2581\u043e\u0442\u0432\u0435\u0442\u0441\u0442\u0432\u0435\u043d\u043d\u043e\u0441\u0442\u044c",
                -8.62516975402832
            ],
            [
                "\u2581certain",
                -8.71924877166748
            ],
            [
                "\u2581\u043d\u0435\u043a\u043e\u0442\u043e\u0440\u044b\u0445",
                -8.652214050292969
            ],
            [
                "\u2581*",
                -9.610733032226562
            ],
            [
                "\u2581official",
                -8.705005645751953
            ],
            [
                "/2",
                -9.277573585510254
            ],
            [
                "\u2581priority",
                -8.635330200195312
            ],
            [
                "\u2581girls",
                -8.918536186218262
            ],
            [
                "\u2581making",
                -8.887127876281738
            ],
            [
                "\u2581\u043f\u0440\u043e\u0438\u0437\u0432\u043e\u0434\u0441\u0442\u0432\u0430",
                -8.746424674987793
            ],
            [
                "\u2581\u0425\u043e\u0442\u044f",
                -8.71781063079834
            ],
            [
                "\u043a\u043e\u0432",
                -9.401799201965332
            ],
            [
                "\u2581knowledge",
                -8.767775535583496
            ],
            [
                "\u2581\u0440\u0435\u0433\u0438\u043e\u043d\u0435",
                -8.681614875793457
            ],
            [
                "\u0441\u043a\u043e\u0439",
                -8.966126441955566
            ],
            [
                "\u2581less",
                -8.841456413269043
            ],
            [
                "\u2581Israel",
                -8.476011276245117
            ],
            [
                "ir",
                -10.628602981567383
            ],
            [
                "\u2581Covenant",
                -8.788299560546875
            ],
            [
                "\u2581violations",
                -8.760574340820312
            ],
            [
                "\u2581behalf",
                -8.597742080688477
            ],
            [
                "\u2581g",
                -9.639608383178711
            ],
            [
                "\u2581mission",
                -8.755969047546387
            ],
            [
                "\u2581lack",
                -8.697953224182129
            ],
            [
                "\u2581power",
                -8.893038749694824
            ],
            [
                "\u2581\u0434\u043e\u043a\u0443\u043c\u0435\u043d\u0442\u0430",
                -8.608200073242188
            ],
            [
                "\u2581annual",
                -8.740906715393066
            ],
            [
                "\u2581\u0441\u0432\u044f\u0437\u0430\u043d\u043d\u044b\u0435",
                -8.740524291992188
            ],
            [
                "\u2581\u0441\u0442\u0435\u043f\u0435\u043d\u0438",
                -8.71144962310791
            ],
            [
                "\u2581interest",
                -8.673297882080078
            ],
            [
                "\u2581trafficking",
                -8.701848030090332
            ],
            [
                "\u2581reduction",
                -8.709674835205078
            ],
            [
                "\u2581Centre",
                -8.795195579528809
            ],
            [
                "\u2581committed",
                -8.68738079071045
            ],
            [
                "\u2581\u0442\u043e\u0447\u043a\u0438",
                -8.72740650177002
            ],
            [
                "\u2581left",
                -9.569202423095703
            ],
            [
                "\u2581\u043f\u0440\u043e\u0432\u0435\u0441\u0442\u0438",
                -8.779674530029297
            ],
            [
                "\u2581While",
                -8.687825202941895
            ],
            [
                "\u2581test",
                -8.987321853637695
            ],
            [
                "\u2581equality",
                -8.740653991699219
            ],
            [
                "\u2581establish",
                -8.692359924316406
            ],
            [
                "\u258136",
                -9.879196166992188
            ],
            [
                "\u2581\u043d\u0438\u0436\u0435",
                -8.782307624816895
            ],
            [
                "\u2581\u0438\u043c\u0435\u0442\u044c",
                -8.757440567016602
            ],
            [
                "\u2581\u043f\u043e\u0434\u0433\u043e\u0442\u043e\u0432\u043a\u0435",
                -8.736363410949707
            ],
            [
                "\u2581\u043a\u043e\u043d\u0441\u0443\u043b\u044c\u0442\u0430\u0446\u0438\u0439",
                -8.674991607666016
            ],
            [
                "\u2581sexual",
                -8.76982307434082
            ],
            [
                "\u2581previous",
                -8.736125946044922
            ],
            [
                "\u0441\u0442\u044c",
                -9.235100746154785
            ],
            [
                "\u2581\u043f\u043e\u043c\u043e\u0449\u044c\u044e",
                -8.73910903930664
            ],
            [
                "\u2581\u043e\u0431\u0441\u0443\u0436\u0434\u0435\u043d\u0438\u044f",
                -8.681236267089844
            ],
            [
                "\u2581others",
                -8.764795303344727
            ],
            [
                "\u2581\u043f\u043e\u0441\u0440\u0435\u0434\u0441\u0442\u0432\u043e\u043c",
                -8.758160591125488
            ],
            [
                "\u2581\u0442\u043e\u0433\u0434\u0430",
                -9.519957542419434
            ],
            [
                "\u2581below",
                -8.757536888122559
            ],
            [
                "\u2581Information",
                -8.737715721130371
            ],
            [
                "\u2581\u0414\u0435\u043a\u043b\u0430\u0440\u0430\u0446\u0438\u0438",
                -8.625483512878418
            ],
            [
                "\u2581treaty",
                -8.759946823120117
            ],
            [
                "\u2581\u042d\u0442\u0430",
                -8.860062599182129
            ],
            [
                "\u043f\u0440\u0430\u0432",
                -9.528736114501953
            ],
            [
                "\u2581\u0432\u043b\u0430\u0441\u0442\u0438",
                -8.814579963684082
            ],
            [
                "\u2581few",
                -9.110247611999512
            ],
            [
                "\u2581early",
                -8.820606231689453
            ],
            [
                "\u2581\u043d\u0430\u0446\u0438\u043e\u043d\u0430\u043b\u044c\u043d\u043e\u0433\u043e",
                -8.777027130126953
            ],
            [
                "\u2581objectives",
                -8.693211555480957
            ],
            [
                "\u2581\u0441\u0444\u0435\u0440\u0435",
                -8.759984016418457
            ],
            [
                "O",
                -9.916337013244629
            ],
            [
                "\u2581arms",
                -8.670116424560547
[...]
