{
    "version": "1.0",
    "truncation": null,
    "padding": null,
    "added_tokens": [
        {
            "id": 0,
            "special": true,
            "content": "</s>",
            "single_word": false,
            "lstrip": false,
            "rstrip": false,
            "normalized": false
        },
        {
            "id": 1,
            "special": true,
            "content": "<unk>",
            "single_word": false,
            "lstrip": false,
            "rstrip": false,
            "normalized": false
        },
        {
            "id": 60715,
            "special": true,
            "content": "<pad>",
            "single_word": false,
            "lstrip": false,
            "rstrip": false,
            "normalized": false
        }
    ],
    "normalizer": {
        "type": "Precompiled",
        "precompiled_charsmap": null
    },
    "pre_tokenizer": {
        "type": "Sequence",
        "pretokenizers": [
            {
                "type": "WhitespaceSplit"
            },
            {
                "type": "Metaspace",
                "replacement": "\u2581",
                "add_prefix_space": true
            }
        ]
    },
    "post_processor": {
        "type": "TemplateProcessing",
        "single": [
            {
                "Sequence": {
                    "id": "A",
                    "type_id": 0
                }
            },
            {
                "SpecialToken": {
                    "id": "</s>",
                    "type_id": 0
                }
            }
        ],
        "pair": [
            {
                "Sequence": {
                    "id": "A",
                    "type_id": 0
                }
            },
            {
                "SpecialToken": {
                    "id": "</s>",
                    "type_id": 0
                }
            },
            {
                "Sequence": {
                    "id": "B",
                    "type_id": 0
                }
            },
            {
                "SpecialToken": {
                    "id": "</s>",
                    "type_id": 0
                }
            }
        ],
        "special_tokens": {
            "</s>": {
                "id": "</s>",
                "ids": [
                    0
                ],
                "tokens": [
                    "</s>"
                ]
            }
        }
    },
    "decoder": {
        "type": "Metaspace",
        "replacement": "\u2581",
        "add_prefix_space": true
    },
    "model": {
        "type": "Unigram",
        "unk_id": 2,
        "vocab": [
            [
                "</s>",
                0.0
            ],
            [
                "<unk>",
                0.0
            ],
            [
                ".",
                -2.889427900314331
            ],
            [
                ",",
                -3.162137508392334
            ],
            [
                "\u2581\u306e",
                -3.367323637008667
            ],
            [
                "\u2581the",
                -3.381498098373413
            ],
            [
                "\u2581,",
                -3.546586036682129
            ],
            [
                "\u2581\u306b",
                -3.6587226390838623
            ],
            [
                "\u2581to",
                -3.842618703842163
            ],
            [
                "\u2581\u306f",
                -3.904186487197876
            ],
            [
                "\u2581\u3092",
                -3.9091379642486572
            ],
            [
                "\u2581of",
                -3.946080207824707
            ],
            [
                "'",
                -3.9759302139282227
            ],
            [
                "\u306e",
                -4.18788480758667
            ],
            [
                "\u2581\"",
                -4.4557085037231445
            ],
            [
                "?",
                -4.561774253845215
            ],
            [
                "\u2581\u3066",
                -4.081414699554443
            ],
            [
                "s",
                -4.012194633483887
            ],
            [
                "\u306f",
                -4.348613739013672
            ],
            [
                "\u2581and",
                -4.2081499099731445
            ],
            [
                "\u2581a",
                -4.195775985717773
            ],
            [
                "\u2581\u305f",
                -4.203113555908203
            ],
            [
                "\u3092",
                -4.491840839385986
            ],
            [
                "\u2581I",
                -4.363813400268555
            ],
            [
                "\u2581",
                -4.222228527069092
            ],
            [
                "\u2581in",
                -4.435953140258789
            ],
            [
                "\u2581\u304c",
                -4.427059650421143
            ],
            [
                "\u2581you",
                -4.494664669036865
            ],
            [
                "\u2581-",
                -4.789609432220459
            ],
            [
                "\u306b",
                -4.64793062210083
            ],
            [
                "\u2581that",
                -4.572620391845703
            ],
            [
                "\u2581\u3068",
                -4.587933540344238
            ],
            [
                "\u2581is",
                -4.681314945220947
            ],
            [
                "\u2581\u3067",
                -4.714103698730469
            ],
            [
                "\u304c",
                -4.894580841064453
            ],
            [
                "\u2581\u3057",
                -4.796847820281982
            ],
            [
                "\u2581it",
                -4.976964473724365
            ],
            [
                "\u2581\u307e\u3059",
                -5.042008399963379
            ],
            [
                "\"",
                -5.119235515594482
            ],
            [
                "\u2581for",
                -5.120411396026611
            ],
            [
                "!",
                -5.578221321105957
            ],
            [
                "\u2581\u3053\u3068",
                -5.114469528198242
            ],
            [
                "\u3068",
                -5.244637489318848
            ],
            [
                "\u2581(",
                -5.563297748565674
            ],
            [
                ":",
                -5.890117645263672
            ],
            [
                "\u2581\u306a",
                -5.206456661224365
            ],
            [
                "\u2581\u307e\u3057",
                -5.277441501617432
            ],
            [
                "\u2581\u3082",
                -5.260259628295898
            ],
            [
                "\u2581be",
                -5.314418792724609
            ],
            [
                "\u2581\u3044",
                -5.307737827301025
            ],
            [
                "\u2581was",
                -5.326812744140625
            ],
            [
                "\u2581\u304b",
                -5.358872413635254
            ],
            [
                "t",
                -5.365511417388916
            ],
            [
                "\u3067",
                -5.5022430419921875
            ],
            [
                "\u2581on",
                -5.389605522155762
            ],
            [
                "\u2581with",
                -5.404109954833984
            ],
            [
                "\u2581have",
                -5.4147539138793945
            ],
            [
                "\u2581not",
                -5.4264044761657715
            ],
            [
                "\u2581are",
                -5.436807155609131
            ],
            [
                "\u2581we",
                -5.434493064880371
            ],
            [
                "\u2581this",
                -5.440174102783203
            ],
            [
                "\u3060",
                -5.565692901611328
            ],
            [
                ")",
                -5.947586536407471
            ],
            [
                "\u2581\u305d\u306e",
                -5.540956020355225
            ],
            [
                "\u2581\u3067\u3059",
                -5.600177764892578
            ],
            [
                "\u2581\u4eba",
                -5.542217254638672
            ],
            [
                "\u2581The",
                -5.607704162597656
            ],
            [
                "\u2581\u308c",
                -5.592948913574219
            ],
            [
                "\u2581as",
                -5.700106143951416
            ],
            [
                "\u2581\u3088\u3046",
                -5.59730339050293
            ],
            [
                "...",
                -6.1695404052734375
            ],
            [
                "\u2581he",
                -5.728664398193359
            ],
            [
                "\u306a\u3044",
                -5.941075801849365
            ],
            [
                "\u2581they",
                -5.780023097991943
            ],
            [
                "\u3067\u3059",
                -5.937938690185547
            ],
            [
                "\u2581\u3044\u308b",
                -5.7351884841918945
            ],
            [
                "\u2581his",
                -5.794031620025635
            ],
            [
                "\u2581\u3059\u308b",
                -5.771771430969238
            ],
            [
                "\u2581will",
                -5.821166515350342
            ],
            [
                "\u2581me",
                -5.825708389282227
            ],
            [
                "\u2581can",
                -5.8329758644104
            ],
            [
                "\u3066",
                -5.9668450355529785
            ],
            [
                "\u3057\u305f",
                -6.054965019226074
            ],
            [
                "\u3063\u3066",
                -6.096660614013672
            ],
            [
                "\u2581your",
                -5.862708568572998
            ],
            [
                "\u2581from",
                -5.868291854858398
            ],
            [
                "\u2581\u3042\u308b",
                -5.857087135314941
            ],
            [
                "\u2581You",
                -5.886349201202393
            ],
            [
                "\u305f",
                -6.033786773681641
            ],
            [
                "\u2581do",
                -5.893461227416992
            ],
            [
                "\u2581what",
                -5.9102864265441895
            ],
            [
                "\u2581\u3053\u306e",
                -5.981327056884766
            ],
            [
                "\u304b",
                -5.988286972045898
            ],
            [
                "\u306a",
                -5.989105224609375
            ],
            [
                "\u2581God",
                -5.9451823234558105
            ],
            [
                "\u307e\u3059",
                -6.110950946807861
            ],
            [
                "\u2581by",
                -5.951422691345215
            ],
            [
                "\u2581all",
                -5.980039596557617
            ],
            [
                "\u3063",
                -5.839808464050293
            ],
            [
                "\u2581\u306a\u3044",
                -5.954799175262451
            ],
            [
                "\u2581\u305d\u308c",
                -6.031449794769287
            ],
            [
                "\u2581\u304b\u3089",
                -5.9844279289245605
            ],
            [
                "\u2581at",
                -6.0461745262146
            ],
            [
                "\u2581my",
                -6.026116371154785
            ],
            [
                "\u3063\u305f",
                -6.193819522857666
            ],
            [
                "\u2581one",
                -6.009978294372559
            ],
            [
                "\u2581It",
                -6.061908721923828
            ],
            [
                "\u2581or",
                -6.052772045135498
            ],
            [
                "\u2581\u3093",
                -6.0649871826171875
            ],
            [
                "\u3082",
                -6.163891792297363
            ],
            [
                "\u2581And",
                -6.081081867218018
            ],
            [
                "m",
                -6.141594886779785
            ],
            [
                "\u2581\u8005",
                -6.038969993591309
            ],
            [
                "\u2581\u795e",
                -6.074002742767334
            ],
            [
                "\u2581their",
                -6.100536346435547
            ],
            [
                "\u2581\u79c1",
                -6.2417893409729
            ],
            [
                "\u3088",
                -6.256608963012695
            ],
            [
                "\u2581who",
                -6.106121063232422
            ],
            [
                "\u2581\u3046",
                -6.122747898101807
            ],
            [
                "\u2581\u307e\u305b",
                -6.112141132354736
            ],
            [
                "\u2581\u305f\u3061",
                -6.09456205368042
            ],
            [
                "re",
                -6.1152520179748535
            ],
            [
                "\u2581them",
                -6.1940083503723145
            ],
            [
                "\u2581What",
                -6.163846015930176
            ],
            [
                "\u2581about",
                -6.178105354309082
            ],
            [
                "\u3044",
                -6.114995956420898
            ],
            [
                "\u2581\u3042\u308a",
                -6.222563743591309
            ],
            [
                "\u2581an",
                -6.237736701965332
            ],
            [
                "\u2581We",
                -6.220849990844727
            ],
            [
                "\u2581were",
                -6.225175857543945
            ],
            [
                "\u2581Jehovah",
                -6.227031707763672
            ],
            [
                "\u3057\u3066",
                -6.48035192489624
            ],
            [
                "\u2581He",
                -6.246683120727539
            ],
            [
                "\u2581\u4f55",
                -6.374722003936768
            ],
            [
                "\u2581\u3055",
                -6.254045009613037
            ],
            [
                "\u304b\u3089",
                -6.423007965087891
            ],
            [
                "\u2581out",
                -6.284023761749268
            ],
            [
                "\u2581him",
                -6.292905807495117
            ],
            [
                "\u2581but",
                -6.302335739135742
            ],
            [
                "\u2581so",
                -6.307565689086914
            ],
            [
                "\u2581know",
                -6.284149646759033
            ],
            [
                "\u2581had",
                -6.313343048095703
            ],
            [
                "\u2581there",
                -6.355825901031494
            ],
            [
                "\u2581has",
                -6.328670501708984
            ],
            [
                "\u2581\u30a8\u30db\u30d0",
                -6.306257724761963
            ],
            [
                "n",
                -6.307116985321045
            ],
            [
                "-",
                -6.523262977600098
            ],
            [
                "\u2581would",
                -6.377583980560303
            ],
            [
                "\u30fb",
                -6.545475006103516
            ],
            [
                "\u2581our",
                -6.381168842315674
            ],
            [
                "\u2581up",
                -6.387626647949219
            ],
            [
                "\u2581[",
                -6.947079181671143
            ],
            [
                "\u25811",
                -6.858498573303223
            ],
            [
                "\u3053\u3068",
                -6.53772497177124
            ],
            [
                "\u3059\u308b",
                -6.564864635467529
            ],
            [
                "\u2581\u3084",
                -6.40709114074707
            ],
            [
                "\u2581did",
                -6.425687789916992
            ],
            [
                "\u2581people",
                -6.442049026489258
            ],
            [
                "\u2581just",
                -6.450313091278076
            ],
            [
                "\u2581us",
                -6.458314895629883
            ],
            [
                "\u2581like",
                -6.4676384925842285
            ],
            [
                "\u2581when",
                -6.485841274261475
            ],
            [
                "ing",
                -6.488234996795654
            ],
            [
                "\u2581\u7684",
                -6.456301212310791
            ],
            [
                "\u2581time",
                -6.482484817504883
            ],
            [
                "\u2581if",
                -6.504176139831543
            ],
            [
                "\u2581\u3042\u306a\u305f",
                -6.602794170379639
            ],
            [
                "\u2581But",
                -6.51625394821167
            ],
            [
                "\u2581\u3044\u3046",
                -6.465122222900391
            ],
            [
                "\u3093\u3060",
                -6.730656623840332
            ],
            [
                "\u308b",
                -6.757879257202148
            ],
            [
                "]",
                -7.232914924621582
            ],
            [
                "\u2581So",
                -6.554548740386963
            ],
            [
                "\u2581\u3067\u3057\u3087",
                -6.58063268661499
            ],
            [
                "\u2581\u3053\u308c",
                -6.674610614776611
            ],
            [
                "\u2581no",
                -6.566812992095947
            ],
            [
                "\u2581\u305f\u3081",
                -6.535243988037109
            ],
            [
                "\u2581'",
                -6.624423503875732
            ],
            [
                "\u2581\u3082\u306e",
                -6.6260576248168945
            ],
            [
                "\u2581her",
                -6.590747833251953
            ],
            [
                ";",
                -6.818881511688232
            ],
            [
                ".\"",
                -7.188675403594971
            ],
            [
                "\u2581\u81ea\u5206",
                -6.558582305908203
            ],
            [
                "\u2581been",
                -6.605832099914551
            ],
            [
                "\u2581\u306a\u308a",
                -6.610353946685791
            ],
            [
                "\u2581more",
                -6.621134281158447
            ],
            [
                "\u2581\u2015",
                -6.6586198806762695
            ],
            [
                "\u2581\u30fb",
                -6.5846686363220215
            ],
            [
                "\u2581\u305d\u3046",
                -6.721632480621338
            ],
            [
                "\u2581In",
                -6.681571960449219
            ],
            [
                "\u2581\u5f7c",
                -6.79180383682251
            ],
            [
                "\u2581here",
                -6.650989532470703
            ],
            [
                "\u2581\u5e74",
                -6.6672282218933105
            ],
            [
                "\u307e",
                -6.883659839630127
            ],
            [
                "\u3055",
                -6.669618129730225
            ],
            [
                "d",
                -6.740342140197754
            ],
            [
                "\u2581get",
                -6.663898468017578
            ],
            [
                "\u2581A",
                -6.752990245819092
            ],
            [
                "\u3057",
                -6.639892101287842
            ],
            [
                "\u2581some",
                -6.691080570220947
            ],
            [
                "\u2581This",
                -6.698440074920654
            ],
            [
                "\u2581\u3089\u308c",
                -6.6819682121276855
            ],
            [
                "\u2581right",
                -6.715330123901367
            ],
            [
                "\u2581don",
                -6.722080707550049
            ],
            [
                "\u2581\u8056\u66f8",
                -6.700606822967529
            ],
            [
                "\u2581Bible",
                -6.73346471786499
            ],
            [
                "\u2581\u3070",
                -6.694453239440918
            ],
            [
                "\u306d",
                -6.902156829833984
            ],
            [
                "\u8005",
                -6.91588020324707
            ],
            [
                "\u2581Jesus",
                -6.787230014801025
            ],
            [
                "\u30fc",
                -6.960098743438721
            ],
            [
                "\u2581go",
                -6.80600118637085
            ],
            [
                "\u2581could",
                -6.813821792602539
            ],
            [
                "\u2581those",
                -6.820093631744385
            ],
            [
                "ll",
                -6.807763576507568
            ],
            [
                "\u2581see",
                -6.84089994430542
            ],
            [
                "\u2581\u3057\u304b\u3057",
                -6.88069486618042
            ],
            [
                "\u2581They",
                -6.830575942993164
            ],
            [
                "\u2581now",
                -6.841400146484375
            ],
            [
                "\u2581That",
                -6.847197532653809
            ],
            [
                "\u4eba",
                -6.975584030151367
            ],
            [
                "\u2581said",
                -6.858164310455322
            ],
            [
                "\u2581\u308c\u308b",
                -6.828464508056641
            ],
            [
                "\u2581these",
                -6.8673834800720215
            ],
            [
                "\u2581good",
                -6.876893043518066
            ],
            [
                "\u2581life",
                -6.881922721862793
            ],
            [
                "\u2581\u30a4\u30a8\u30b9",
                -6.8314900398254395
            ],
            [
                "\u2581No",
                -6.891625881195068
            ],
            [
                "\u2581how",
                -6.888214111328125
            ],
            [
                "\u306b\u306f",
                -7.2173919677734375
            ],
            [
                "\u2581way",
                -6.873080730438232
            ],
            [
                "\u2581may",
                -6.8947038650512695
            ],
            [
                "\u2581\u3067\u3057",
                -6.934035778045654
            ],
            [
                "\u2581\u307e\u305f",
                -6.903431415557861
            ],
            [
                "ed",
                -6.95869255065918
            ],
            [
                "\u2581\u4e2d",
                -6.876984596252441
            ],
            [
                "\u2581which",
                -6.909282207489014
            ],
            [
                "\u2581\u306a\u308b",
                -6.894960880279541
            ],
            [
                "\u3093",
                -6.838382244110107
            ],
            [
                "\u2581she",
                -6.925984859466553
            ],
            [
                "\u2581How",
                -6.925482749938965
            ],
            [
                "\u2581into",
                -6.931026458740234
            ],
            [
                "\u2581than",
                -6.9321722984313965
            ],
            [
                "\u2581other",
                -6.937614917755127
            ],
            [
                "\u2581then",
                -7.021064281463623
            ],
            [
                "\u2581want",
                -6.948657989501953
            ],
            [
                "\u25812",
                -7.4557318687438965
            ],
            [
                "\u2581over",
                -6.990708351135254
            ],
            [
                "\u2581man",
                -6.997707366943359
            ],
            [
                "\u2581\u4eba\u3005",
                -6.967069149017334
            ],
            [
                "ve",
                -7.027981281280518
            ],
            [
                "\u308f",
                -7.15883207321167
            ],
            [
                "\u2581\u4e00",
                -7.02048397064209
            ],
            [
                "\u2581should",
                -7.028163909912109
            ],
            [
                "\u2581going",
                -7.029905796051025
            ],
            [
                "\u2581only",
                -7.032337665557861
            ],
            [
                "\u2581think",
                -7.01120138168335
            ],
            [
                "\u2581does",
                -7.041114807128906
            ],
            [
                "\u2581\u305d\u3057\u3066",
                -7.1267852783203125
            ],
            [
                "\u2581\u3067\u304d",
                -7.0490641593933105
            ],
            [
                "\u2581make",
                -7.025745868682861
            ],
            [
                "\u3084",
                -7.212673187255859
            ],
            [
                "\u2581\u308f\u305f\u3057\u305f\u3061",
                -7.00469970703125
            ],
            [
                "\u2581got",
                -7.069500923156738
            ],
            [
                "\u2581many",
                -7.052021026611328
            ],
            [
                "\u2581\u6642",
                -7.037039756774902
            ],
            [
                "\u305b\u3093",
                -7.316897392272949
            ],
            [
                "\u4f55",
                -7.232929706573486
            ],
            [
                "\u2581world",
                -7.073812484741211
            ],
            [
                "\u306a\u304b\u3063",
                -7.491588115692139
            ],
            [
                "\u2581also",
                -7.085873126983643
            ],
            [
                "\u2581things",
                -7.108617305755615
            ],
            [
                "\u2581...",
                -7.2168755531311035
            ],
            [
                "\u2581\u3053\u3046",
                -7.11752462387085
            ],
            [
                "\u2581need",
                -7.081749439239502
            ],
            [
                "\u2581\u306a\u3063",
                -7.09010648727417
            ],
            [
                "\u2581even",
                -7.100152969360352
            ],
            [
                "\u3044\u305f",
                -7.393220901489258
            ],
            [
                "\u2581back",
                -7.113300800323486
            ],
            [
                "\u2581\u3069\u3046",
                -7.209496974945068
            ],
            [
                "\u2581If",
                -7.120937347412109
            ],
            [
                "\u2581say",
                -7.1078290939331055
            ],
            [
                "\u2581\u5f7c\u3089",
                -7.175515651702881
            ],
            [
                "\u2581because",
                -7.13519287109375
            ],
            [
                "\u79c1",
                -7.29335880279541
            ],
            [
                "\u2581\u672c",
                -7.211320400238037
            ],
            [
                "\u2581\u2010",
                -7.174941062927246
            ],
            [
                "\u2581years",
                -7.167245388031006
            ],
            [
                "\u2581such",
                -7.160506725311279
            ],
            [
                "\u2581\u3064\u3044",
                -7.117400169372559
            ],
            [
                "a",
                -7.369106292724609
            ],
            [
                "\u2581come",
                -7.147136688232422
            ],
            [
                "\u2581work",
                -7.1492919921875
            ],
            [
                "\u2581\u306a\u3089",
                -7.123443603515625
            ],
            [
                "\u2581take",
                -7.159214973449707
            ],
            [
                "\u3067\u306f",
                -7.392452716827393
            ],
            [
                "\u3066\u308b",
                -7.106515407562256
            ],
            [
                "\u25814",
                -7.436507701873779
            ],
            [
                "\u2581very",
                -7.185564041137695
            ],
            [
                "\u5f53",
                -7.3204121589660645
            ],
            [
                "\u4e8b",
                -7.344724655151367
            ],
            [
                "\u2581first",
                -7.215284824371338
            ],
            [
                "\u2581day",
                -7.203827857971191
            ],
            [
                "\u2581two",
                -7.224582195281982
            ],
            [
                "\u25815",
                -7.484210968017578
            ],
            [
                "\u2581\u3069\u3093\u306a",
                -7.278910160064697
            ],
            [
                "\u25813",
                -7.590853691101074
            ],
            [
                "\u3089",
                -7.235844612121582
            ],
            [
                "\u2581\u8ff0\u3079",
                -7.206412315368652
            ],
            [
                "\u2581down",
                -7.2545695304870605
            ],
            [
                "\u2581\u65e5",
                -7.2923126220703125
            ],
            [
                "\u4e2d",
                -7.424389362335205
            ],
            [
                "\u2581any",
                -7.279211044311523
            ],
            [
                "\u2581\u4eca",
                -7.356313705444336
            ],
            [
                "ly",
                -7.315547943115234
            ],
            [
                "\u2581\u306a\u304f",
                -7.242074966430664
            ],
            [
                "\u2581help",
                -7.27427864074707
            ],
            [
                "\u2581\u3060",
                -7.369049072265625
            ],
            [
                "\u2581made",
                -7.307875156402588
            ],
            [
                "\u306e\u304b",
                -7.578558444976807
            ],
            [
                "\u2581She",
                -7.321108818054199
            ],
            [
                "\u2581There",
                -7.334012508392334
            ],
            [
                "\u2581\u5f7c\u5973",
                -7.485594272613525
            ],
            [
                "\u2581Why",
                -7.331543922424316
            ],
            [
                "\u2581much",
                -7.3440656661987305
            ],
            [
                "\u2581where",
                -7.344640254974365
            ],
            [
                "\u3088\u3046",
                -7.494966506958008
            ],
            [
                "\u2581\u7b2c",
                -7.349966049194336
            ],
            [
                "\u2581its",
                -7.56726598739624
            ],
            [
                "\u2581before",
                -7.359087944030762
            ],
            [
                "\u2581being",
                -7.382165908813477
            ],
            [
                "\u2581really",
                -7.373058795928955
            ],
            [
                "\u2581\u6b21",
                -7.40968656539917
            ],
            [
                "\u2581\u308f\u305f\u3057",
                -7.35745096206665
            ],
            [
                "\u2581\u4e16\u754c",
                -7.401501655578613
            ],
            [
                "\u2581\u541b",
                -7.567352294921875
            ],
            [
                "\u2581\u3059\u3079\u3066",
                -7.3822126388549805
            ],
            [
                "\u2581\u4ed6",
                -7.425790786743164
            ],
            [
                "\u3042\u306a\u305f",
                -7.534493923187256
            ],
            [
                "\u2581\u3053\u3053",
                -7.554088115692139
            ],
            [
                "\u2581\u591a\u304f",
                -7.399465560913086
            ],
            [
                "\u2581When",
                -7.4131059646606445
            ],
            [
                "\u258110",
                -7.771605968475342
            ],
            [
                "\u2581\u5fc5\u8981",
                -7.4296793937683105
            ],
            [
                "\u304f",
                -7.4720306396484375
            ],
            [
                "\u2581\u8a3c\u4eba",
                -7.428365707397461
            ],
            [
                "\u308d\u3046",
                -7.611821174621582
            ],
            [
                "\u3057\u3087\u3046",
                -7.572768211364746
            ],
            [
                "\u3057\u307e\u3059",
                -7.6126861572265625
            ],
            [
                "\u2581love",
                -7.425730228424072
            ],
            [
                "\u2581well",
                -7.444285869598389
            ],
            [
                "\u2581something",
                -7.4372453689575195
            ],
            [
                "\u304f\u308c",
                -7.609922409057617
            ],
            [
                "\u3058\u3083",
                -7.604536056518555
            ],
            [
                "\u2581let",
                -7.4437255859375
            ],
            [
                "\u300f",
                -7.38522481918335
            ],
            [
                "\u2581/",
                -7.982166290283203
            ],
            [
                "\u2581\u3069\u306e",
                -7.500046730041504
            ],
            [
                "\u2581\u3088\u3063",
                -7.404178142547607
            ],
            [
                "\u2581\u3088\u308a",
                -7.432493686676025
            ],
            [
                "\u25818",
                -7.815082550048828
            ],
            [
                "\u2581\u304a",
                -7.4918365478515625
            ],
            [
                "\u2581Well",
                -7.471652984619141
            ],
            [
                "\u2581\u8003\u3048",
                -7.4628729820251465
            ],
            [
                "\u2581too",
                -7.476122856140137
            ],
            [
                "\u2581Yeah",
                -7.476567268371582
            ],
            [
                "\u2581must",
                -7.479988098144531
            ],
            [
                "\u2581\u9593",
                -7.481847763061523
            ],
            [
                "\u2581earth",
                -7.481513500213623
            ],
            [
                "\u2581after",
                -7.4866485595703125
            ],
            [
                "\u3044\u3044",
                -7.698096752166748
            ],
            [
                "\u6642",
                -7.644023418426514
            ],
            [
                "\u2581new",
                -7.483729362487793
            ],
            [
                "\u2581\u30af\u30ea\u30b9\u30c1\u30e3\u30f3",
                -7.462619781494141
            ],
            [
                "\u2581\u307e\u3067",
                -7.504066467285156
            ],
            [
                "\u3067\u304d",
                -7.75653076171875
            ],
            [
                "y",
                -7.814208507537842
            ],
            [
                "\u2581For",
                -7.5199456214904785
            ],
            [
                "\u3060\u3051",
                -7.683248043060303
            ],
            [
                "2",
                -7.793688774108887
            ],
            [
                "\u2581\u5bb6",
                -7.550659656524658
            ],
            [
                "\u3044\u3066",
                -7.715659141540527
            ],
            [
                "\u2581little",
                -7.531602382659912
            ],
            [
                "\u2581\u4ffa",
                -7.7233781814575195
            ],
            [
                "\u2581never",
                -7.537007808685303
            ],
            [
                "\u2581find",
                -7.524329662322998
            ],
            [
                "\u2581Do",
                -7.551672458648682
            ],
            [
                "\u2581\u4eba\u9593",
                -7.539222240447998
            ],
            [
                "\u3042\u308a",
                -7.738198757171631
            ],
            [
                "\u305f\u3061",
                -7.710119724273682
            ],
            [
                "\u2581\u898b",
                -7.54575777053833
            ],
            [
                "\u2581\u304f\u3060\u3055\u3044",
                -7.571550369262695
            ],
            [
                "\u3042\u308b",
                -7.685825824737549
            ],
            [
                "\u304b\u308c\u3089",
                -7.72835636138916
            ],
            [
                "\u2581\u306a\u305c",
                -7.672214984893799
            ],
            [
                "\u2581through",
                -7.567249774932861
            ],
            [
                "\u2581Oh",
                -7.581554889678955
            ],
            [
                "\u2581\u3079\u304d",
                -7.555756568908691
            ],
            [
                "\u3082\u306e",
                -7.790280818939209
            ],
            [
                "er",
                -7.751262664794922
            ],
            [
                "\u2581\u4e8c",
                -7.5730366706848145
            ],
            [
                "\u3093\u3067",
                -7.76751708984375
            ],
            [
                "\u3053\u306e",
                -7.734099388122559
            ],
            [
                "\u2581\u5f8c",
                -7.6075968742370605
            ],
            [
                "\u2581give",
                -7.57149600982666
            ],
            [
                "\u3042\u306a\u305f\u304c\u305f",
                -7.748284339904785
            ],
            [
                "\u258115",
                -8.026485443115234
            ],
            [
                "\u2581As",
                -7.6590962409973145
            ],
            [
                "\u2581\u304d",
                -7.5833353996276855
            ],
            [
                "\u2581own",
                -7.60353946685791
            ],
            [
                "\u2581\u3067\u304d\u308b",
                -7.6032514572143555
            ],
            [
                "I",
                -7.708747386932373
            ],
            [
                "\u2581most",
                -7.616977691650391
            ],
            [
                "\u2581\u524d",
                -7.634235382080078
            ],
            [
                "\u25817",
                -7.896697521209717
            ],
            [
                "\u2581All",
                -7.642465591430664
            ],
            [
                "\u2581\u3082\u3046",
                -7.779058933258057
            ],
            [
                "\u307e\u3067",
                -7.82932186126709
            ],
            [
                "\u2581\u554f\u984c",
                -7.643293857574463
            ],
            [
                "\u2581look",
                -7.613265037536621
            ],
            [
                "\u304c\u3042\u308b",
                -7.840705394744873
            ],
            [
                "\u2581children",
                -7.643078804016113
            ],
            [
                "\u2581off",
                -7.648803234100342
            ],
            [
                "\u2581\u30ad\u30ea\u30b9\u30c8",
                -7.587942123413086
            ],
            [
                "S",
                -7.865166664123535
            ],
            [
                "\u305d\u306e",
                -7.774016380310059
            ],
            [
                "\u2581name",
                -7.691123008728027
            ],
            [
                "\u3067\u3082",
                -7.824499130249023
            ],
            [
                "\u3088\u3046\u306b",
                -7.852299213409424
            ],
            [
                "\u2581Witnesses",
                -7.649868011474609
            ],
            [
                "\u2581\u305f\u308a",
                -7.523032188415527
            ],
            [
                "\u2581gonna",
                -7.66355037689209
            ],
            [
                "\u2581says",
                -7.696609973907471
            ],
            [
                "\u2581another",
                -7.665480613708496
            ],
            [
                "\u2581\u300e",
                -7.660999298095703
            ],
            [
                "\u258112",
                -7.996088027954102
            ],
            [
                "\u2581\u30da\u30fc\u30b8",
                -7.800088882446289
            ],
            [
                "\u2581same",
                -7.67185115814209
            ],
            [
                "\u2581why",
                -7.673734664916992
            ],
            [
                "\u2581My",
                -7.68356466293335
            ],
            [
                "\u2581thing",
                -7.659281253814697
            ],
            [
                "\u305d\u308c",
                -7.815213680267334
            ],
            [
                "\u3044\u308b",
                -7.872942924499512
            ],
            [
                "\u3057\u307e",
                -7.866453647613525
            ],
            [
                "\u2581Now",
                -7.68720817565918
            ],
            [
                "1",
                -7.934506416320801
            ],
            [
                "\u2581still",
                -7.6941704750061035
            ],
            [
                "\u2581home",
                -7.678219795227051
            ],
            [
                "\u2581doing",
                -7.706262588500977
            ],
            [
                "\u2581family",
                -7.699604034423828
            ],
            [
                "\u2581Christ",
                -7.707157135009766
            ],
            [
                "\u2581am",
                -7.796829700469971
            ],
            [
                "\u2581Is",
                -8.369406700134277
            ],
            [
                "\u2581use",
                -7.705061912536621
            ],
            [
                "\u2581\u3060\u3051",
                -7.705800533294678
            ],
            [
                "\u2581long",
                -7.71150541305542
            ],
            [
                "\u2581\u3078",
                -7.711701393127441
            ],
            [
                "\u305d\u3046",
                -7.8748931884765625
            ],
            [
                "\u2581\u5fc3",
                -7.7097954750061035
            ],
            [
                "\u3067\u3042\u308b",
                -7.883321285247803
            ],
            [
                "in",
                -8.025177001953125
            ],
            [
                "\u2581men",
                -7.74415397644043
            ],
            [
                "\u65b9",
                -7.8593878746032715
            ],
            [
                "e",
                -7.841678142547607
            ],
            [
                "\u2581\u3067\u3082",
                -7.952208995819092
            ],
            [
                "\u2581page",
                -7.722487449645996
            ],
            [
                "\u2581Let",
                -7.73371696472168
            ],
            [
                "\u2581\u3042\u3063",
                -7.71135950088501
            ],
            [
                "\u2581Yes",
                -7.734228610992432
            ],
            [
                "\u2581year",
                -7.714076042175293
            ],
            [
                "\u5f7c",
                -7.8899641036987305
            ],
            [
                "\u2581\u8a00\u8449",
                -7.705467700958252
            ],
            [
                "\u2581away",
                -7.74007511138916
            ],
            [
                "\u2581times",
                -7.80159854888916
            ],
            [
                "\u2581\u79c1\u305f\u3061",
                -7.847350120544434
            ],
            [
                "b",
                -8.04786491394043
            ],
            [
                "\u2581tell",
                -7.727357387542725
            ],
            [
                "\u2581found",
                -7.743359088897705
            ],
            [
                "\u306a\u3089",
                -7.852133750915527
            ],
            [
                "\u3063\u3066\u3044\u308b",
                -7.999028205871582
            ],
            [
                "\u2581put",
                -7.732637882232666
            ],
            [
                "\u305e",
                -7.921080589294434
            ],
            [
                "\u6570",
                -7.87162971496582
            ],
            [
                "\u266a",
                -8.438875198364258
            ],
            [
                "\u2581might",
                -7.754543304443359
            ],
            [
                "\u25816",
                -7.970307350158691
            ],
            [
                "\u2581\u50d5",
                -7.902367115020752
            ],
            [
                "\u2581\u4e0a",
                -7.750727653503418
            ],
            [
                "\u2581\u307b\u3069",
                -7.754462242126465
            ],
            [
                "\u2581others",
                -7.811749458312988
            ],
            [
                "\u258120",
                -8.282801628112793
            ],
            [
                "\u2581Christian",
                -7.7535200119018555
            ],
            [
                "\u2581every",
                -7.781717300415039
            ],
            [
                "\u2581\u5bfe\u3059\u308b",
                -7.755943775177002
            ],
            [
                "\u5e74",
                -7.9345221519470215
            ],
            [
                "\u2581great",
                -7.782555103302002
            ],
            [
                "\u25819",
                -8.075179100036621
            ],
            [
                "\u2581Allah",
                -7.784135818481445
            ],
            [
                "\u2581\u5834\u5408",
                -7.768846035003662
            ],
            [
                "\u30a2\u30c3\u30e9",
                -7.951590061187744
            ],
            [
                "\u2581\u5b50\u4f9b",
                -7.819395542144775
            ],
            [
                "\u2581\u3089\u308c\u308b",
                -7.76967716217041
            ],
            [
                "\u306a\u304f",
                -8.005520820617676
            ],
            [
                "\u2581place",
                -7.786967754364014
            ],
            [
                "\u3068\u3044\u3046",
                -8.01845645904541
            ],
            [
                "\u2581used",
                -7.822779655456543
            ],
            [
                "\u308a",
                -7.850069522857666
            ],
            [
                "\u2581\u306a\u3069",
                -7.768662452697754
            ],
            [
                "\u2581today",
                -7.825713157653809
            ],
            [
                "\u9054",
                -8.009315490722656
            ],
            [
                "\u258111",
                -8.107438087463379
            ],
            [
                "\u2581One",
                -7.8367228507995605
            ],
            [
                "\u3066\u3044\u308b",
                -7.936821460723877
            ],
            [
                "\u2581\u305b",
                -7.797124862670898
            ],
            [
                "\u2581C",
                -8.204715728759766
            ],
            [
                "\u2581true",
                -7.849262237548828
            ],
            [
                "\u2581three",
                -7.853800296783447
            ],
            [
                "\u2581came",
                -7.854180812835693
            ],
            [
                "\u2581Paul",
                -7.856308937072754
            ],
            [
                "\u2581mean",
                -7.833578109741211
            ],
            [
                "\u884c",
                -8.14986515045166
            ],
            [
                "\u2581\u305a",
                -7.785959720611572
            ],
            [
                "\u306a\u3051\u308c",
                -7.822714328765869
            ],
            [
                "\u2581To",
                -7.897157669067383
            ],
            [
                "\u3067\u3042",
                -8.033093452453613
            ],
            [
                "\u2581person",
                -7.8478217124938965
            ],
            [
                "\u2581called",
                -7.872374534606934
            ],
            [
                "\u308d",
                -8.002830505371094
            ],
            [
                "the",
                -7.91951847076416
            ],
            [
                "\u2581again",
                -7.872424125671387
            ],
            [
                "\u2581each",
                -7.873194694519043
            ],
            [
                "\u25813:",
                -8.386101722717285
            ],
            [
                "\u2581\u53d7\u3051",
                -7.860681533813477
            ],
            [
                "\u2581\u826f\u3044",
                -7.892088890075684
            ],
            [
                "\u2581part",
                -7.870394706726074
            ],
            [
                "\u51fa",
                -8.07528018951416
            ],
            [
                "\u2581keep",
                -7.877084255218506
            ],
            [
                "\u2581\u6708",
                -7.943179607391357
            ],
            [
                "\u2581last",
                -7.904890060424805
            ],
            [
                "\u2581\u540c\u3058",
                -7.91877555847168
            ],
            [
                "\u2581Then",
                -7.928652763366699
            ],
            [
                "\u3057\u3066\u3044\u308b",
                -8.116798400878906
            ],
            [
                "\u2581\u3082\u3057",
                -8.040647506713867
            ],
            [
                "\u2581\u8a9e",
                -7.878108024597168
            ],
            [
                "\u2581become",
                -7.896158218383789
            ],
            [
                "\u2581\u6642\u9593",
                -7.953972339630127
            ],
            [
                "\u2581\u751f\u6d3b",
                -7.881394386291504
            ],
            [
                "\u2581\u611b",
                -7.916201591491699
            ],
            [
                "\u2581\u76ee",
                -7.940601825714111
            ],
            [
                "\u2581\u3057\u308c",
                -7.866101264953613
            ],
            [
                "\u6211\u3005",
                -8.058381080627441
            ],
            [
                "\u2581example",
                -7.901058673858643
            ],
            [
                "\u2581\u4eca\u65e5",
                -7.969313621520996
            ],
            [
                "\u25812:",
                -8.44538688659668
            ],
            [
                "\u2581--",
                -7.959557056427002
            ],
            [
                "\u2581old",
                -7.925368309020996
            ],
            [
                "\u3064",
                -7.945168972015381
            ],
            [
                "\u2581\u5927",
                -7.965682506561279
            ],
            [
                "--",
                -7.939348220825195
            ],
            [
                "\u2581told",
                -7.936598300933838
            ],
            [
                "\u2581\u738b\u56fd",
                -7.9212965965271
            ],
            [
                "\u3055\u308c\u305f",
                -8.134615898132324
            ],
            [
                "\u306a\u306e",
                -8.156258583068848
            ],
            [
                "\u30b9",
                -8.162199020385742
            ],
            [
                "\u2581death",
                -7.922654151916504
            ],
            [
                "\u2581\u304a\u524d",
                -8.123268127441406
            ],
            [
                "\u304b\u308c",
                -8.114174842834473
            ],
            [
                "\u2581feel",
                -7.924156665802002
            ],
            [
                "\u2581course",
                -7.947618007659912
            ],
            [
                "\u2581around",
                -7.953570365905762
            ],
            [
                "\u2581\u52a9\u3051",
                -7.979104518890381
            ],
            [
                "\u2581better",
                -7.9620280265808105
            ],
            [
                "\u2581against",
                -7.965991497039795
            ],
            [
                "\u2581believe",
                -7.948633193969727
            ],
            [
                "\u3089\u308c\u308b",
                -8.119972229003906
            ],
            [
                "\u2581\u5bb6\u65cf",
                -7.98931884765625
            ],
            [
                "\u5b50",
                -8.106024742126465
            ],
            [
                "\u258118",
                -8.41923999786377
            ],
            [
                "\u2581\u7814\u7a76",
                -7.970350742340088
            ],
            [
                "\u2581\u4e8b\u67c4",
                -7.919536113739014
            ],
            [
                "\u2581\u7bc0",
                -7.991347312927246
            ],
            [
                "\u2581\u70b9",
                -7.973567485809326
            ],
            [
                "\u3088\u308a",
                -8.125387191772461
            ],
            [
                "\u65e5",
                -8.12491226196289
            ],
            [
                "\u305f\u3044",
                -8.158933639526367
            ],
            [
                "\u2581\u304a\u3089",
                -7.905885219573975
            ],
            [
                "\u305f\u3081\u306b",
                -8.179768562316895
            ],
            [
                "\u2581\u4e0d",
                -7.992146015167236
            ],
            [
                "\u2581human",
                -7.976786136627197
            ],
            [
                "\u2581\u3088\u308b",
                -7.965999603271484
            ],
            [
                "\u2581end",
                -7.98872709274292
            ],
            [
                "\u2581thought",
                -7.987900257110596
            ],
            [
                "\u2581under",
                -8.016253471374512
            ],
            [
                "\u3042\u308a\u307e",
                -8.143004417419434
            ],
            [
                "\u624b",
                -8.138812065124512
            ],
            [
                "\u5fc5\u8981",
                -8.170028686523438
            ],
            [
                "\u2581\u4e0e\u3048",
                -7.967978477478027
            ],
            [
                "\u2581\u3088\u304f",
                -8.055931091308594
            ],
            [
                "\u4e0a",
                -8.130827903747559
            ],
            [
                "\u304b\u3063\u305f",
                -7.669428825378418
            ],
            [
                "\u2581Lord",
                -8.022308349609375
            ],
            [
                "\u3089\u308c",
                -8.215124130249023
            ],
            [
                "\u2581left",
                -8.02973461151123
            ],
            [
                "\u2581kind",
                -8.009757041931152
            ],
            [
                "\u2581Hey",
                -8.029897689819336
            ],
            [
                "\u4e3b",
                -8.160995483398438
            ],
            [
                "\u2581\u3068\u3053\u308d",
                -7.996708869934082
            ],
            [
                "\u3068\u3057\u3066",
                -8.225757598876953
            ],
            [
                "\u672c",
                -8.180119514465332
            ],
            [
                "\u2581\u529b",
                -8.030616760253906
            ],
            [
                "\u2581\u4f7f\u5f92",
                -8.000313758850098
            ],
            [
                "\u2581Okay",
                -8.032018661499023
            ],
            [
                "\u2581number",
                -8.024393081665039
            ],
            [
                "\u2581always",
                -8.038100242614746
            ],
            [
                "\u3053\u308c",
                -8.182931900024414
            ],
            [
                "\u2581\u4e00\u3064",
                -8.062782287597656
            ],
            [
                "\u2581\u3064\u307e\u308a",
                -8.053064346313477
            ],
            [
                "\u2581\u305d\u308c\u3067",
                -8.241275787353516
            ],
            [
                "\u308c",
                -8.018866539001465
            ],
            [
                "\u2581means",
                -8.064346313476562
            ],
            [
                "\u2581done",
                -8.049128532409668
            ],
            [
                "\u2581heart",
                -8.03597640991211
            ],
            [
                "\u2581\u3044\u3044",
                -8.258234977722168
            ],
            [
                "\u258113",
                -8.35589599609375
            ],
            [
                "\u2581ever",
                -8.06592845916748
            ],
            [
                "\u76ee",
                -8.188075065612793
            ],
            [
                "\u2581upon",
                -8.05611801147461
            ],
            [
                "\u2581\u3055\u3089\u306b",
                -8.051783561706543
            ],
            [
                "\u2581Christians",
                -8.085354804992676
            ],
            [
                "\u3078",
                -8.200948715209961
            ],
            [
                "\u2581\u7ae0",
                -8.076275825500488
            ],
            [
                "\u308f\u308c",
                -8.257408142089844
            ],
            [
                "\u2581\u95a2\u4fc2",
                -8.061814308166504
            ],
            [
                "\u2581\u5949\u4ed5",
                -8.05662727355957
            ],
            [
                "\u2581faith",
                -8.066386222839355
            ],
            [
                "\u2581without",
                -8.066340446472168
            ],
            [
                "\u2581\u30d1\u30a6\u30ed",
                -8.013731002807617
            ],
            [
                "\u2581His",
                -8.075092315673828
            ],
            [
                "\u2581\u5730",
                -8.073862075805664
            ],
            [
                "\u258114",
                -8.349782943725586
            ],
            [
                "\u2581book",
                -8.058883666992188
            ],
            [
                "\u2581S",
                -8.501374244689941
            ],
            [
                "E",
                -8.329794883728027
            ],
            [
                "\u2581words",
                -8.088107109069824
            ],
            [
                "\u2581talk",
                -8.05534553527832
            ],
            [
                "\u2581call",
                -8.05403995513916
            ],
            [
                "\u2581Come",
                -8.087623596191406
            ],
            [
                "\u3055\u3093",
                -8.222740173339844
            ],
            [
                "\u8a00\u3046",
                -8.261115074157715
            ],
            [
                "\u2581show",
                -8.061877250671387
            ],
            [
                "r",
                -8.3266019821167
            ],
            [
                "\u77e5",
                -8.358348846435547
            ],
            [
                "\u258116",
                -8.482881546020508
            ],
            [
                "\u2581while",
                -8.089103698730469
            ],
            [
                "\u2581truth",
                -8.074990272521973
            ],
            [
                "\u7269",
                -8.184179306030273
            ],
            [
                "\u2581\u304a\u3044",
                -8.112691879272461
            ],
            [
                "\u2581\u305f\u3044",
                -8.17833423614502
            ],
            [
                "\u2581house",
                -8.077564239501953
            ],
            [
                "\u2581\u624b",
                -8.138669967651367
            ],
            [
                "\u2581Kingdom",
                -8.096609115600586
            ],
            [
                "3",
                -8.431928634643555
            ],
            [
                "\u2581anything",
                -8.10378646850586
            ],
            [
                "\u2581Who",
                -8.104007720947266
            ],
            [
                "\u2581parents",
                -8.11251449584961
            ],
            [
                "\u3069\u3046",
                -8.267447471618652
            ],
            [
                "\u5206",
                -8.200826644897461
            ],
            [
                "\u2581days",
                -8.156536102294922
            ],
            [
                "\u306b\u306a\u308b",
                -8.331016540527344
            ],
            [
                "\u2581John",
                -8.11893081665039
            ],
            [
                "\u2581\u5b9f\u969b",
                -8.14354133605957
            ],
            [
                "\u2581Not",
                -8.135215759277344
            ],
            [
                "\u2581\u4e07",
                -8.15021800994873
            ],
            [
                "\u2581sure",
                -8.117870330810547
            ],
            [
                "\u258117",
                -8.410700798034668
            ],
            [
                "\u2581\u305d\u308c\u3089",
                -8.13296127319336
            ],
            [
                "\u5bb6",
                -8.282204627990723
            ],
            [
                "\u8a71",
                -8.386364936828613
            ],
            [
                "\u2581\u3069\u3053",
                -8.23659610748291
            ],
            [
                "\u2581Your",
                -8.117959976196289
            ],
            [
                "\u3042",
                -8.298717498779297
            ],
            [
                "\u2581water",
                -8.116010665893555
            ],
            [
                "\u2581young",
                -8.136868476867676
            ],
            [
                "\u2581ones",
                -8.304533004760742
            ],
            [
                "\u2581\u3060\u308c",
                -8.110889434814453
            ],
            [
                "\u2581\u89aa",
                -8.145918846130371
            ],
            [
                "\u2581B",
                -8.487068176269531
            ],
            [
                "\u2581\u6570",
                -8.206236839294434
            ],
            [
                "\u2581\u66f8",
                -8.118379592895508
            ],
            [
                "\u2581\u5b97\u6559",
                -8.124893188476562
            ],
            [
                "\u2581live",
                -8.126192092895508
            ],
            [
                "\u2581between",
                -8.145035743713379
            ],
            [
                "\u2581Don",
                -8.156832695007324
            ],
            [
                "\u3044\u307e",
                -8.493446350097656
            ],
            [
                "\u3053\u3053",
                -8.310049057006836
            ],
            [
                "\u2581Are",
                -8.15148639678955
            ],
            [
                "\u81ea\u5206",
                -8.256941795349121
            ],
            [
                "\u2581spirit",
                -8.132781982421875
            ],
            [
                "\u306b\u3082",
                -8.386733055114746
            ],
            [
                "\u2581actually",
                -8.150970458984375
            ],
            [
                "\u306a\u3055\u3044",
                -8.315755844116211
            ],
            [
                "\u2581\u8a71",
                -8.23847770690918
            ],
            [
                "\u2581money",
                -8.15149211883545
            ],
            [
                "\u2581\u7269",
                -8.15196418762207
            ],
            [
                "\u5f8c",
                -8.315260887145996
            ],
            [
                "\u2581night",
                -8.138050079345703
            ],
            [
                "\u2581New",
                -8.159379005432129
            ],
            [
                "\u2581both",
                -8.162517547607422
            ],
            [
                "\u2581\u4fe1\u4ef0",
                -8.154217720031738
            ],
            [
                "\u2581mind",
                -8.155379295349121
            ],
            [
                "\u2581different",
                -8.17282772064209
            ],
            [
                "\u2581among",
                -8.174724578857422
            ],
            [
                "\u3057\u306a\u3044",
                -8.395336151123047
            ],
            [
                "\u3055\u308c",
                -8.334990501403809
            ],
            [
                "\u308c\u3070",
                -8.37013053894043
            ],
            [
                "\u304f\u3060\u3055\u3044",
                -8.345335006713867
            ],
            [
                "\u3053\u3068\u304c",
                -8.419293403625488
            ],
            [
                "\u2581few",
                -8.180267333984375
            ],
            [
                "\u2581\u4ed5\u4e8b",
                -8.217144966125488
            ],
            [
                "\u2581\u6765",
                -8.190712928771973
            ],
            [
                "\u30a4",
                -8.359631538391113
            ],
            [
                "\u2581\u8a00\u3044",
                -8.192578315734863
            ],
            [
                "\u2581\u95a2\u3059\u308b",
                -8.160724639892578
            ],
            [
                "\u2581went",
                -8.1906156539917
            ],
            [
                "\u2581\u3068\u3063",
                -8.290383338928223
            ],
            [
                "\u2581Just",
                -8.195055961608887
            ],
            [
                "\u2581father",
                -8.173933982849121
            ],
            [
                "\u2581fact",
                -8.175383567810059
            ],
            [
                "\u2581set",
                -8.174335479736328
            ],
            [
                "\u3060\u3088",
                -8.411081314086914
            ],
            [
                "\u2581\u6559\u3048",
                -8.19384765625
            ],
            [
                "_",
                -8.55903148651123
            ],
            [
                "\u2581At",
                -8.2355375289917
            ],
            [
                "\u2581\u610f\u5473",
                -8.187590599060059
            ],
            [
                "\u2581able",
                -8.203863143920898
            ],
            [
                "\u2581\u5144\u5f1f",
                -8.187104225158691
            ],
            [
                "th",
                -8.324061393737793
            ],
            [
                "\u2581\u3068\u304d",
                -8.184502601623535
            ],
            [
                "\u2581Where",
                -8.212730407714844
            ],
            [
                "\u2581\u56fd",
                -8.236932754516602
            ],
            [
                "\u2581together",
                -8.215402603149414
            ],
            [
                "\u3059",
                -8.234382629394531
            ],
            [
                "\u2581himself",
                -8.21596622467041
            ],
            [
                "\u2581\u305d\u3053",
                -8.28311538696289
            ],
            [
                "\u2581\u8a18\u4e8b",
                -8.267346382141113
            ],
            [
                "\u2581\u3042\u3042",
                -8.396711349487305
            ],
            [
                "\u2581\u5f97",
                -8.177191734313965
            ],
            [
                "\u3066\u3044",
                -8.163785934448242
            ],
            [
                "\u2581*",
                -8.864666938781738
            ],
            [
                "\u2581took",
                -8.224085807800293
            ],
            [
                "\u2581nothing",
                -8.222877502441406
            ],
            [
                "\u258122",
                -8.582488059997559
            ],
            [
                "\u2581Can",
                -8.23018741607666
            ],
            [
                "\u2581\u5bfe\u3057",
                -8.157776832580566
            ],
            [
                "\u2581often",
                -8.233475685119629
            ],
            [
                "al",
                -8.550117492675781
            ],
            [
                "\u2581\u65b0\u3057\u3044",
                -8.28077507019043
            ],
            [
                "),",
                -8.983243942260742
            ],
            [
                "\u2581\u3067\u3059\u304b\u3089",
                -8.251191139221191
            ],
            [
                "\u2581\u601d\u3044",
                -8.234254837036133
            ],
            [
                "\u2581\u4f1a\u8846",
                -8.222905158996582
            ],
            [
                "\u2581\u78ba\u304b",
                -8.277076721191406
            ],
            [
                "\u6301",
                -8.38756275177002
            ],
            [
                "\u2581!",
                -8.449113845825195
            ],
            [
                "\u2581given",
                -8.24160385131836
            ],
            [
                "\u2581\u3046\u3061",
                -8.230398178100586
            ],
            [
                "\u2581\u4e16",
                -8.204639434814453
            ],
            [
                "\u2581lot",
                -8.223162651062012
            ],
            [
                "\u2581\u547d",
                -8.226836204528809
            ],
            [
                "\u2581\u3060\u304c",
                -8.452367782592773
            ],
            [
                "\u2581read",
                -8.224946975708008
            ],
            [
                "\u2581\u5927\u304d\u306a",
                -8.272361755371094
            ],
            [
                "\u2581\u51fa",
                -8.304903030395508
            ],
            [
                "\u258119",
                -8.488917350769043
            ],
            [
                "\u2581\u8ab0",
                -8.446420669555664
            ],
            [
                "\u2581next",
                -8.254973411560059
            ],
            [
                "\u2581Some",
                -8.259526252746582
            ],
            [
                "\u2581\u6240",
                -8.256905555725098
            ],
            [
                "\u2581word",
                -8.243143081665039
            ],
            [
                "\u2581power",
                -8.247295379638672
            ],
            [
                "\u2581though",
                -8.26497745513916
            ],
            [
                "\u3067\u304d\u308b",
                -8.449994087219238
            ],
            [
                "\u2581\u77e5\u3063",
                -8.28373908996582
            ],
            [
                "/",
                -8.792247772216797
            ],
            [
                "A",
                -8.642882347106934
            ],
            [
                "\u2581study",
                -8.27469539642334
            ],
            [
                "\u2581dead",
                -8.276819229125977
            ],
            [
                "\u307f",
                -8.35954761505127
            ],
            [
                "\u2581\u306a\u3055\u3044",
                -8.281731605529785
            ],
            [
                "\u2581shall",
                -8.280352592468262
            ],
            [
                "\u2581\u793a\u3057",
                -8.243500709533691
            ],
            [
                "\u2581hand",
                -8.278627395629883
            ],
            [
                "\u2581wife",
                -8.286690711975098
            ],
            [
                "\u3067\u3057\u3087",
                -8.526148796081543
            ],
            [
                "\u6642\u9593",
                -8.452274322509766
            ],
            [
                "\u2581\u3053\u308c\u3089",
                -8.300342559814453
            ],
            [
                "\u2581wrong",
                -8.286376953125
            ],
            [
                "\u5927",
                -8.420827865600586
            ],
            [
                "\u307e\u305f",
                -8.442464828491211
            ],
            [
                "\u2581\u3042\u308c",
                -8.27907943725586
            ],
            [
                "\u2581mother",
                -8.276124954223633
            ],
            [
                "\u2581\u3042\u306e",
                -8.460127830505371
            ],
            [
                "\u2581understand",
                -8.280525207519531
            ],
            [
                "\u2581best",
                -8.30198860168457
            ],
            [
                "\u2581\u30e8\u30cf\u30cd",
                -8.268047332763672
            ],
            [
                "\u2581someone",
                -8.305790901184082
            ],
            [
                "\u2581important",
                -8.308748245239258
            ],
            [
                "\u2581system",
                -8.292814254760742
            ],
            [
                "\u6765",
                -8.431687355041504
            ],
            [
                "\u3051\u3069",
                -8.489700317382812
            ],
            [
                "\u2581hope",
                -8.298971176147461
            ],
            [
                "\u2581themselves",
                -8.319244384765625
            ],
            [
                "\u2581\u30de\u30bf\u30a4",
                -8.310856819152832
            ],
            [
                "\u2581problem",
                -8.300725936889648
            ],
            [
                "\u2581blood",
                -8.328601837158203
            ],
            [
                "\u2581okay",
                -8.322535514831543
            ],
            [
                "\u304a",
                -8.420348167419434
            ],
            [
                "\u8a00\u3063",
                -8.81423282623291
            ],
            [
                "c",
                -8.82098388671875
            ],
            [
                "\u2581congregation",
                -8.312767028808594
            ],
            [
                "\u2581having",
                -8.330609321594238
            ],
            [
                "\u2581\u6700\u521d",
                -8.384942054748535
            ],
            [
                "\u2581since",
                -8.329251289367676
            ],
            [
                "\u2581real",
                -8.328967094421387
            ],
            [
                "\u2581\u7d50\u679c",
                -8.345656394958496
            ],
            [
                "\u2581living",
                -8.333099365234375
            ],
            [
                "\u3068\u601d",
                -8.384709358215332
            ],
            [
                "\u2581\u6027",
                -8.300023078918457
            ],
            [
                "\u3060\u308d",
                -8.458250045776367
            ],
            [
                "\u2581\u3060\u304b\u3089",
                -8.506705284118652
            ],
            [
                "C",
                -8.750539779663086
            ],
            [
                "\u2581\u5929",
                -8.318303108215332
            ],
            [
                "\u2581Because",
                -8.3383150100708
            ],
            [
                "\u898b\u3066",
                -8.577385902404785
            ],
            [
                "\u2581bad",
                -8.338436126708984
            ],
            [
                "\u529b",
                -8.471566200256348
            ],
            [
                "\u2581later",
                -8.339442253112793
            ],
            [
                "\u30c8",
                -8.593724250793457
            ],
            [
                "\u2581\u8a00\u308f",
                -8.32949161529541
            ],
            [
                "\u2581matter",
                -8.326953887939453
            ],
            [
                "\u2581ask",
                -8.325578689575195
            ],
            [
                "\u2581However",
                -8.346384048461914
            ],
            [
                "\u2581\u56f3\u7248",
                -8.528782844543457
            ],
            [
                "\u3055\u305b",
                -8.51467514038086
            ],
            [
                "\u2581\u6559\u4f1a",
                -8.346949577331543
            ],
            [
                "\u2581coming",
                -8.34899616241455
            ],
            [
                "\u2581wanted",
                -8.354641914367676
            ],
            [
                "x",
                -9.123601913452148
            ],
            [
                "\u2581spiritual",
                -8.351839065551758
            ],
            [
                "\u2581saw",
                -8.352848052978516
            ],
            [
                "\u541b",
                -8.51736068725586
            ],
            [
                "\u2581until",
                -8.353827476501465
            ],
            [
                "\u2581far",
                -8.354544639587402
            ],
            [
                "i",
                -8.715556144714355
            ],
            [
                "\u2581\u307e\u3060",
                -8.470375061035156
            ],
            [
                "\u2581case",
                -8.338936805725098
            ],
            [
                "\u2581\u5b50\u3069\u3082",
                -8.35986328125
            ],
            [
                "\u884c\u304f",
                -8.528115272521973
            ],
            [
                "\u2581gave",
                -8.36461067199707
            ],
            [
                "\u2581\u771f",
                -8.355245590209961
            ],
            [
                "\u2581bring",
                -8.34814167022705
            ],
            [
                "\u2581\u6c34",
                -8.426058769226074
            ],
            [
                "\u2581These",
                -8.368873596191406
            ],
            [
                "\u795e",
                -8.409132957458496
            ],
            [
                "\u2581school",
                -8.352799415588379
            ],
            [
                "\u258124",
                -8.64681625366211
            ],
            [
                "\u2581On",
                -8.38359260559082
            ],
            [
                "\u2581making",
                -8.374052047729492
            ],
            [
                "\u2581everything",
                -8.37399959564209
            ],
            [
                "\u2581Our",
                -8.368447303771973
            ],
            [
                "\u3055\u308c\u308b",
                -8.54299545288086
            ],
            [
                "\u2581\u970a\u7684",
                -8.355937004089355
            ],
            [
                "\u2581body",
                -8.377313613891602
            ],
            [
                "\u2581\u738b",
                -8.354154586791992
            ],
            [
                "\u2581\u307e\u3057\u3087",
                -8.427855491638184
            ],
            [
                "\u2581order",
                -8.358963966369629
            ],
            [
                "\u2581seen",
                -8.389020919799805
            ],
            [
                "\u2581care",
                -8.359537124633789
            ],
            [
                "\u2581point",
                -8.35822868347168
            ],
            [
                "\u2581yet",
                -8.384880065917969
            ],
            [
                "\u304c\u3042",
                -8.567804336547852
            ],
            [
                "\u2581during",
                -8.384049415588379
            ],
            [
                "\u3063\u3066\u3044",
                -8.466019630432129
            ],
            [
                "\u2581hard",
                -8.383580207824707
            ],
            [
                "\u2581child",
                -8.387248039245605
            ],
            [
                "es",
                -8.496299743652344
            ],
            [
                "\u8003\u3048",
                -8.529745101928711
            ],
            [
                "\u2581\u6b7b",
                -8.346085548400879
            ],
            [
                "\u2581woman",
                -8.395529747009277
            ],
            [
                "\u2581high",
                -8.393743515014648
            ],
            [
                "\u2581news",
                -8.442026138305664
            ],
            [
                "\u2581\u4e3b",
                -8.417237281799316
            ],
            [
                "\u5916",
                -8.541545867919922
            ],
            [
                "\u2581Mr",
                -8.39886474609375
            ],
            [
                "\u5f7c\u5973",
                -8.56737995147705
            ],
            [
                "\u2581son",
                -8.404281616210938
            ],
            [
                "\u2581\u5225",
                -8.472953796386719
            ],
            [
                "\u2581saying",
                -8.39391803741455
            ],
            [
                "\u2581whole",
                -8.406231880187988
            ],
            [
                "\u2581\u305b\u308b",
                -8.369778633117676
            ],
            [
                "\u308f\u305f\u3057",
                -8.488028526306152
            ],
            [
                "\u2581leave",
                -8.389983177185059
            ],
            [
                "\u2581\u975e\u5e38",
                -8.417153358459473
            ],
            [
                "\u2581already",
                -8.413427352905273
            ],
            [
                "\u305f\u3089",
                -8.523964881896973
            ],
            [
                "\u2581food",
                -8.39507007598877
            ],
            [
                "\u601d\u3046",
                -8.598241806030273
            ],
            [
                "\u2581city",
                -8.415545463562012
            ],
            [
                "\u2581enough",
                -8.416258811950684
            ],
            [
                "\u3089\u308c\u305f",
                -8.638348579406738
            ],
            [
                "\u524d",
                -8.544042587280273
            ],
            [
                "\u2581\u7d50\u5a5a",
                -8.434393882751465
            ],
            [
                "\u8a00\u3063\u3066",
                -8.755809783935547
            ],
            [
                "The",
                -8.436454772949219
            ],
            [
                "\u2581\u307f",
                -8.466008186340332
            ],
            [
                "\u5730",
                -8.501659393310547
            ],
            [
                "\u2581reason",
                -8.404339790344238
            ],
            [
                "\u2581\u3060\u308d",
                -8.43246078491211
            ],
            [
                "\u2581\u5171",
                -8.42284107208252
            ],
            [
                "\u2581\u3044\u3084",
                -8.608687400817871
            ],
            [
                "\u2581change",
                -8.409141540527344
            ],
            [
                "\u258121",
                -8.729227066040039
            ],
            [
                "\u2581fine",
                -8.430017471313477
            ],
            [
                "\u2581After",
                -8.436665534973145
            ],
            [
                "\u304d",
                -8.520174026489258
            ],
            [
                "\u2581\u540c",
                -8.43202018737793
            ],
            [
                "\u2581\u6301",
                -8.4215726852417
            ],
            [
                "\u3054\u81ea\u5206",
                -8.35274887084961
            ],
            [
                "\u2581whom",
                -8.460958480834961
            ],
            [
                "\u2581\u30a4\u30b9\u30e9\u30a8\u30eb",
                -8.387534141540527
            ],
            [
                "\u2581\u304b\u308c\u3089",
                -8.654434204101562
            ],
            [
                "\u2581yourself",
                -8.444710731506348
            ],
            [
                "\u3089\u306a\u3044",
                -8.523870468139648
            ],
            [
                "\u2581\u6c11",
                -8.43060302734375
            ],
            [
                "\u2581By",
                -8.457518577575684
            ],
            [
                "\u258130",
                -9.09305477142334
            ],
            [
                "\u2581\u59bb",
                -8.483519554138184
            ],
            [
                "\u2581Thank",
                -8.427664756774902
            ],
            [
                "\u2581asked",
                -8.450445175170898
            ],
            [
                "\u2581try",
                -8.450243949890137
            ],
            [
                "\u2581\u5973\u6027",
                -8.460644721984863
            ],
            [
                "\u2581ago",
                -8.456085205078125
            ],
            [
                "\u2581\u7236",
                -8.465798377990723
            ],
            [
                "\u2581\u7b54\u3048",
                -8.4979248046875
            ],
            [
                "\u2581Did",
                -8.45190715789795
            ],
            [
                "\u2581Picture",
                -8.438116073608398
            ],
            [
                "\u2581became",
                -8.46122932434082
            ],
            [
                "\u2581\u3055\u308c",
                -8.443552017211914
            ],
            [
                "\u2581women",
                -8.457387924194336
            ],
            [
                "\u300e",
                -8.430806159973145
            ],
            [
                "\u2581four",
                -8.462578773498535
            ],
            [
                "\u5ea6",
                -8.542860984802246
            ],
            [
                "\u3046",
                -8.476766586303711
            ],
            [
                "\u2581\u5b66",
                -8.431079864501953
            ],
            [
                "\u2581Get",
                -8.471571922302246
            ],
            [
                "\u2581\u9810\u8a00",
                -8.432147026062012
            ],
            [
                "\u540c\u3058",
                -8.638365745544434
            ],
            [
                "\u2581learn",
                -8.473541259765625
            ],
            [
                "\u2581\u5f71\u97ff",
                -8.485783576965332
            ],
            [
                "\u2581hear",
                -8.455692291259766
            ],
            [
                "\u7537",
                -8.641080856323242
            ],
            [
                "\u2581sorry",
                -8.476214408874512
            ],
            [
                "\u306b\u306a\u308a",
                -8.698294639587402
            ],
            [
                "\u2581\u65b9\u6cd5",
                -8.49652099609375
            ],
            [
                "\u2581O",
                -8.712689399719238
            ],
            [
                "\u2581turn",
                -8.463568687438965
            ],
            [
                "\u2581\u7406\u89e3",
                -8.458403587341309
            ],
            [
                "\u2581\u8a00\u3063",
                -8.53731918334961
            ],
            [
                "\u306b\u3064\u3044\u3066",
                -8.658827781677246
            ],
            [
                "\u2581Please",
                -8.486993789672852
            ],
            [
                "\u2581full",
                -8.492386817932129
            ],
            [
                "\u2581\u8aac\u660e",
                -8.48841667175293
            ],
            [
                "\u30eb",
                -8.685746192932129
            ],
            [
                "\u2581happened",
                -8.494065284729004
            ],
            [
                "\u2581cannot",
                -8.493760108947754
            ],
            [
                "\u7684\u306a",
                -8.680959701538086
            ],
            [
                "\u2581With",
                -8.497648239135742
            ],
            [
                "\u2581looking",
                -8.504380226135254
            ],
            [
                "\u2581please",
                -8.482040405273438
            ],
            [
                "\u3079\u304d",
                -8.687612533569336
            ],
            [
                "\u2581question",
                -8.483358383178711
            ],
            [
                "\u5fa1",
                -8.662426948547363
            ],
            [
                "\u2581\u3059\u3050",
                -8.589982986450195
            ],
            [
                "\u2581Look",
                -8.488604545593262
            ],
            [
                "\u2581start",
                -8.490262031555176
            ],
            [
                "\u306a\u3063\u305f",
                -8.75886058807373
            ],
            [
                "\u2581\u4ee5\u4e0a",
                -8.535980224609375
            ],
            [
                "\u2581war",
                -8.499497413635254
            ],
            [
                "\u2581P",
                -9.089345932006836
            ],
            [
                "\u2581face",
                -8.506173133850098
            ],
            [
                "\u2581Word",
                -8.50619888305664
            ],
            [
                "\u30a2",
                -8.811431884765625
            ],
            [
                "\u2581\u3088",
                -8.681014060974121
            ],
            [
                "\u2581United",
                -8.533795356750488
            ],
            [
                "\u2581\u30ed\u30fc\u30de",
                -8.51762866973877
            ],
            [
                "\u4f53",
                -8.608428955078125
            ],
            [
                "\u2581\u7406\u7531",
                -8.529443740844727
            ],
            [
                "\u2581percent",
                -8.527857780456543
            ],
            [
                "\u2581Go",
                -8.598666191101074
            ],
            [
                "l",
                -8.86159896850586
            ],
            [
                "\u2581\u304a\u308a",
                -8.451422691345215
            ],
            [
                "\u2581\u3069\u3046\u3057\u3066",
                -8.63963508605957
            ],
            [
                "\u8ab0",
                -8.698322296142578
            ],
            [
                "\u2581\u6c17",
                -8.640439987182617
            ],
            [
                "\u2581\u5b9f",
                -8.58798885345459
            ],
            [
                "\u2581began",
                -8.537137031555176
            ],
            [
                "\u2581getting",
                -8.534549713134766
            ],
            [
                "\u2581s",
                -9.213167190551758
            ],
            [
                "\u258125",
                -9.013667106628418
            ],
            [
                "\u2581\u5b50",
                -8.534918785095215
            ],
            [
                "\u2581\u7d4c\u9a13",
                -8.527195930480957
            ],
            [
                "\u898b",
                -8.585869789123535
            ],
            [
                "o",
                -8.703200340270996
            ],
            [
                "\u2581view",
                -8.522120475769043
            ],
            [
                "\u2581\u4f8b\u3048\u3070",
                -8.554169654846191
            ],
            [
                "\u2581else",
                -8.542481422424316
            ],
            [
                "\u2581heard",
                -8.545867919921875
            ],
            [
                "\u2581\u660e\u3089\u304b",
                -8.529048919677734
            ],
            [
                "\u2581car",
                -8.536614418029785
            ],
            [
                "\u2581\u8eab",
                -8.534754753112793
            ],
            [
                "\u2581won",
                -8.547937393188477
            ],
            [
                "\u2581\u305d\u3093\u306a",
                -8.717987060546875
            ],
            [
                "\u305f\u3081",
                -8.681419372558594
            ],
            [
                "\u2581apostle",
                -8.538938522338867
            ],
            [
                "\u30af",
                -8.854819297790527
            ],
            [
                "\u2581once",
                -8.555024147033691
            ],
            [
                "\u2581\u5e7e",
                -8.54924488067627
            ],
            [
                "\u2581second",
                -8.542679786682129
            ],
            [
                "\u2581small",
                -8.561274528503418
            ],
            [
                "\u2581stop",
                -8.544303894042969
            ],
            [
                "\u2581five",
                -8.561651229858398
            ],
            [
                "\u305b",
                -8.673227310180664
            ],
            [
                "4",
                -8.951706886291504
            ],
            [
                "\u2581\u3055\u3048",
                -8.54342269897461
            ],
            [
                "\u2581million",
                -8.545467376708984
            ],
            [
                "\u3084\u308b",
                -8.743764877319336
            ],
            [
                "\u2581light",
                -8.545208930969238
            ],
            [
                "\u2581problems",
                -8.59189224243164
            ],
            [
                "\u306b\u3057\u3066",
                -8.83466911315918
            ],
            [
                "\u2581\u8a00\u3046",
                -8.580559730529785
            ],
            [
                "\u4eca",
                -8.721744537353516
            ],
            [
                "\u2581\u4e0b",
                -8.573009490966797
            ],
            [
                "\u2581big",
                -8.572266578674316
            ],
            [
                "\u2581peace",
                -8.575616836547852
            ],
            [
                "\u524d\u306b",
                -8.751728057861328
            ],
            [
                "\u2581remember",
                -8.559234619140625
            ],
            [
                "\u7684",
                -8.662652015686035
            ],
            [
                "\u2581T",
                -9.093199729919434
            ],
            [
                "\u2581\u884c\u306a\u308f",
                -8.558243751525879
            ],
            [
                "ta",
                -8.792753219604492
            ],
            [
                "\u2581friends",
                -8.600641250610352
            ],
            [
                "\u2581\u3042\u306a\u305f\u304c\u305f",
                -8.686836242675781
            ],
            [
                "\u2581head",
                -8.575806617736816
            ],
            [
                "\u2581knew",
                -8.585503578186035
            ],
            [
                "\u2581future",
                -8.58634090423584
            ],
            [
                "\u2581\u3059",
                -8.585515022277832
            ],
            [
                "\u2581\u3042\u308b\u3044\u306f",
                -8.497224807739258
            ],
            [
                "\u2581Of",
                -8.586991310119629
            ],
            [
                "\u2581\u5d07\u62dd",
                -8.541536331176758
            ],
            [
                "\u2581\u7f6a",
                -8.555826187133789
            ],
            [
                "\u2581eyes",
                -8.598397254943848
            ],
            [
                "\u2581trying",
                -8.592060089111328
            ],
            [
                "\u2581lives",
                -8.619236946105957
            ],
            [
                "\u2581\u884c\u306a\u3046",
                -8.524654388427734
            ],
            [
                "\u2581\u73fe\u5728",
                -8.608816146850586
            ],
            [
                "\u2581\u7528\u3044",
                -8.560677528381348
            ],
            [
                "5",
                -8.937880516052246
            ],
            [
                "\u2581\u9053",
                -8.611832618713379
            ],
            [
                "\u2581K",
                -9.238449096679688
            ],
            [
                "\u2581\u3060\u3063",
                -8.57345962524414
            ],
            [
                "\u2581\u6301\u3064",
                -8.557037353515625
            ],
            [
                "\u2581knowledge",
                -8.59499454498291
            ],
            [
                "\u2581wrote",
                -8.596166610717773
            ],
            [
                "\u2581sent",
                -8.595727920532227
            ],
            [
                "\u3053\u3093\u306a",
                -8.769245147705078
            ],
            [
                "\u2581answer",
                -8.577004432678223
            ],
            [
                "\u2581makes",
                -8.687825202941895
            ],
            [
                "\u2581brother",
                -8.58338737487793
            ],
            [
                "\u2581possible",
                -8.599577903747559
            ],
            [
                "\u2581worship",
                -8.610322952270508
            ],
            [
                "\u306a\u3044\u3068",
                -8.81894302368164
            ],
            [
                "6:",
                -8.794193267822266
            ],
            [
                "\u2581\u3059\u308c",
                -8.586803436279297
            ],
            [
                "\u2581\u4e16\u7d00",
                -8.591620445251465
            ],
            [
                "\u2581\u3042\u308a\u304c\u3068\u3046",
                -8.77381706237793
            ],
            [
                "\u30f3",
                -8.687739372253418
            ],
            [
                "\u304d\u305f",
                -8.7600736618042
            ],
            [
                "\u2581F",
                -9.129857063293457
            ],
            [
                "\u4e00",
                -8.737751960754395
            ],
            [
                "\u2581brought",
                -8.609760284423828
            ],
            [
                "\u2581\u77e5\u3089",
                -8.633309364318848
            ],
            [
                "\u2581\u7121",
                -8.616342544555664
            ],
            [
                "\u2581soon",
                -8.610675811767578
            ],
            [
                "\u2581known",
                -8.629374504089355
            ],
            [
                "\u2581\u6b73",
                -8.636604309082031
            ],
            [
                "\u2581idea",
                -8.59462833404541
            ],
            [
                "\u2581\u771f\u7406",
                -8.604195594787598
            ],
            [
                "\u2581\u5b8c\u5168",
                -8.600441932678223
            ],
            [
                "\u2581\u4f53",
                -8.632771492004395
            ],
            [
                "\u2581Here",
                -8.641529083251953
            ],
            [
                "\u2581D",
                -9.062889099121094
            ],
            [
                "\u6765\u305f",
                -8.796133041381836
            ],
            [
                "ers",
                -8.693995475769043
            ],
            [
                "\u2581free",
                -8.621742248535156
            ],
            [
                "\u2581\u7c73\u56fd",
                -8.644743919372559
            ],
            [
                "\u2581x",
                -9.015602111816406
            ],
            [
                "\u2581Even",
                -8.630745887756348
            ],
            [
                "\u2581kill",
                -8.611495018005371
            ],
            [
                "\u2581century",
                -8.635838508605957
            ],
            [
                "\u2581\u3082\u3063\u3068",
                -8.714376449584961
            ],
            [
                "\u30c9",
                -8.95816707611084
            ],
            [
                "\u2581\u91cd\u8981",
                -8.62436294555664
            ],
            [
                "\u2581Israel",
                -8.64558219909668
            ],
            [
                "\u2581\u8eca",
                -8.698783874511719
            ],
            [
                "\u304b\u306a",
                -8.904287338256836
            ],
            [
                "\u2581Or",
                -8.659908294677734
            ],
            [
                "\u2581die",
                -8.630132675170898
            ],
            [
                "\u2581\u6642\u4ee3",
                -8.619607925415039
            ],
            [
                "\u2581\u6559",
                -8.611351013183594
            ],
            [
                "\u2015",
                -8.811338424682617
            ],
            [
                "\u3060\u306a",
                -8.893021583557129
            ],
            [
                "\u2581\u25cf",
                -9.177776336669922
            ],
            [
                "\u2581fear",
                -8.624677658081055
            ],
            [
                "\u8eca",
                -8.790470123291016
            ],
            [
                "\u2581\u696d",
                -8.626060485839844
            ],
            [
                "\u2581\u65b0",
                -8.671311378479004
            ],
            [
                "\u5fc3",
                -8.758904457092285
            ],
            [
                "\u2581\u30ed",
                -8.749692916870117
            ],
            [
                "\u3053\u3046",
                -8.807036399841309
            ],
            [
                "N",
                -9.206923484802246
            ],
            [
                "P",
                -9.418129920959473
            ],
            [
                "\u2581\u6700\u3082",
                -8.67446517944336
            ],
            [
                "\u4ed5\u4e8b",
                -8.819634437561035
            ],
            [
                "\u2581Good",
                -8.651792526245117
            ],
            [
                "\u2581\u5371\u967a",
                -8.685335159301758
            ],
            [
                "\u2581religious",
                -8.65612506866455
            ],
            [
                "\u2581\u5275\u9020",
                -8.612281799316406
            ],
            [
                "\u2581along",
                -8.656468391418457
            ],
            [
                "\u2581\u7948\u308a",
                -8.638777732849121
            ],
            [
                "\u2581\u793a\u3059",
                -8.629423141479492
            ],
            [
                "\u2581friend",
                -8.640264511108398
            ],
            [
                "\u2581\u307b\u3068\u3093\u3069",
                -8.6757173538208
            ],
            [
                "\u2581job",
                -8.637946128845215
            ],
            [
                "\u2581\u652f\u914d",
                -8.620132446289062
            ],
            [
                "\u2581World",
                -8.657758712768555
            ],
            [
                "\u2581happy",
                -8.660798072814941
            ],
            [
                "\u2581comes",
                -8.745132446289062
            ],
            [
                "\u56de",
                -8.819448471069336
            ],
            [
                "\u2581\u5c11\u306a\u304f",
                -8.668479919433594
            ],
            [
                "\u5973",
                -8.792819023132324
            ],
            [
                "\u2581\u25a1",
                -9.306078910827637
            ],
            [
                "\u2581close",
                -8.653963088989258
            ],
            [
                "\u2581talking",
                -8.670248031616211
            ],
            [
                "\u2581\u76ee\u7684",
                -8.669649124145508
            ],
            [
                "\u2581Peter",
                -8.67090892791748
            ],
            [
                "\u6240",
                -8.799786567687988
            ],
            [
                "\u2581move",
                -8.649674415588379
            ],
            [
                "\u2581brothers",
                -8.692731857299805
            ],
            [
                "or",
                -9.0079345703125
            ],
            [
                "\u2581started",
                -8.673574447631836
            ],
            [
                "\u2581working",
                -8.678901672363281
            ],
            [
                "\u2581From",
                -8.673583030700684
            ],
            [
                "\u805e",
                -8.82506275177002
            ],
            [
                "\u2581room",
                -8.654228210449219
            ],
            [
                "\u2581\u304b\u308c",
                -8.882043838500977
            ],
            [
                "\u2581land",
                -8.659095764160156
            ],
            [
                "\u2581service",
                -8.661018371582031
            ],
            [
                "\u2581\u72b6\u614b",
                -8.651156425476074
            ],
            [
                "\u2581M",
                -9.144676208496094
            ],
            [
                "\u591c",
                -8.832422256469727
            ],
            [
                "\u2581E",
                -9.079056739807129
            ],
            [
                "\u3069\u3053",
                -8.844100952148438
            ],
            [
                "\u30e0",
                -8.900986671447754
            ],
            [
                "\u2581country",
                -8.681599617004395
            ],
            [
                "\u2581open",
                -8.661526679992676
            ],
            [
                "\u2581guy",
                -8.666892051696777
            ],
            [
                "\u2581side",
                -8.667141914367676
            ],
            [
                "\u2581\u308f\u304b",
                -8.863764762878418
            ],
            [
                "\u2581\u307b\u304b",
                -8.68494701385498
            ],
            [
                "\u2581result",
                -8.666561126708984
            ],
            [
                "\u2581girl",
                -8.6836576461792
            ],
            [
                "\u2581taking",
                -8.691308975219727
            ],
            [
                "\u2581\u5834\u6240",
                -8.701937675476074
            ],
            [
                "\u2581\u884c\u52d5",
                -8.659725189208984
            ],
            [
                "\u2581\u7d04\u675f",
                -8.694445610046387
            ],
            [
                "\u2581\u3061\u3087\u3063\u3068",
                -8.864557266235352
            ],
            [
                "\u2581lost",
                -8.697239875793457
            ],
            [
                "\u2581nor",
                -8.696985244750977
            ],
            [
                "\u2581\u305f\u3060",
                -9.224133491516113
            ],
            [
                "\u2581\u6c42\u3081",
                -8.675682067871094
            ],
            [
                "\u6bba",
                -9.00312328338623
            ],
            [
                "\u2581David",
                -8.71221923828125
            ],
            [
                "\u2581\u9762",
                -8.694130897521973
            ],
            [
                "\u2581\u5206\u304b",
                -8.882221221923828
            ],
            [
                "\u2581Father",
                -8.705158233642578
            ],
            [
                "\u2581alone",
                -8.704963684082031
            ],
            [
                "\u3055\u308c\u3066",
                -8.8912353515625
            ],
            [
                "\u2581\u4e8b",
                -8.727058410644531
            ],
            [
                "\u2581certain",
                -8.70710277557373
            ],
            [
                "\u2581\u5c11\u3057",
                -8.78104305267334
            ],
            [
                "\u2581\u4e00\u7dd2",
                -8.790925979614258
            ],
            [
                "\u2581\u5168",
                -8.734914779663086
            ],
            [
                "\u2581taken",
                -8.724241256713867
            ],
            [
                "\u2581\u30da\u30c6\u30ed",
                -8.68785572052002
            ],
            [
                "\u2581\u4eba\u985e",
                -8.720183372497559
            ],
            [
                "\u2581speak",
                -8.699792861938477
            ],
            [
                "\u2581thinking",
                -8.729019165039062
            ],
            [
                "\u2581however",
                -8.722543716430664
            ],
            [
                "\u2581\u30b3\u30ea\u30f3\u30c8",
                -8.700956344604492
            ],
            [
                "\u2581\u8a69\u7de8",
                -8.699748992919922
            ],
            [
                "\u4e0b",
                -8.85888385772705
            ],
            [
                "\u2581States",
                -8.72702693939209
            ],
            [
                "\u7684\u306b",
                -8.917181968688965
            ],
            [
                "\u2581\u65b9",
                -8.64765453338623
            ],
            [
                "\u2581mankind",
                -8.729549407958984
            ],
            [
                "\u6708",
                -8.874610900878906
            ],
            [
                "\u2581killed",
                -8.730633735656738
            ],
            [
                "\u2581persons",
                -8.772183418273926
            ],
            [
                "\u30ba",
                -8.985857009887695
            ],
            [
                "\u2581cause",
                -8.711838722229004
            ],
            [
                "\u2581\u3042\u306a\u305f\u65b9",
                -8.651010513305664
            ],
            [
                "\u2581information",
                -8.734006881713867
            ],
            [
                "\u2581anyone",
                -8.738042831420898
            ],
            [
                "\u9053",
                -8.883784294128418
            ],
            [
                "\u2581husband",
                -8.720982551574707
            ],
            [
                "\u2581un",
                -9.153522491455078
            ],
            [
                "\u2581Many",
                -8.73781681060791
            ],
            [
                "to",
                -8.886588096618652
            ],
            [
                "\u2581present",
                -8.720820426940918
            ],
            [
                "\u601d\u3044",
                -9.148436546325684
            ],
            [
                "\u3082\u3046",
                -8.912847518920898
            ],
            [
                "\u5834\u6240",
                -8.90964412689209
            ],
            [
                "\u2581law",
                -8.728582382202148
            ],
            [
                "\u2581nations",
                -8.757872581481934
            ],
            [
                "\u826f\u3044",
                -8.887057304382324
            ],
            [
                "\u258123",
                -9.008049964904785
            ],
            [
                "\u2581&",
                -8.716630935668945
            ],
            [
                "\u2581clear",
                -8.745882034301758
            ],
            [
                "\u2581\u5730\u4e0a",
                -8.721121788024902
            ],
            [
                "\u308f\u305f\u3057\u305f\u3061",
                -8.86453914642334
            ],
            [
                "\u2581Yet",
                -8.75550365447998
            ],
            [
                "\u2581ways",
                -8.878988265991211
            ],
            [
                "\u308c\u305f",
                -8.928861618041992
            ],
            [
                "\u2581U",
                -8.856121063232422
            ],
            [
                "\u30bf",
                -9.039917945861816
            ],
            [
                "\u4ffa",
                -8.924330711364746
            ],
            [
                "\u3070",
                -8.705368041992188
            ],
            [
                "\u2581stay",
                -8.73768424987793
            ],
            [
                "\u2581\u5927\u4e08\u592b",
                -8.940803527832031
            ],
            [
                "\u6027",
                -8.83493423461914
            ],
            [
                "\u2581less",
                -8.758849143981934
            ],
            [
                "\u2581\u4fe1\u3058",
                -8.811785697937012
            ],
            [
                "\u2581age",
                -8.747729301452637
            ],
            [
                "\u2581using",
                -8.778839111328125
            ],
            [
                "\u307f\u305f\u3044",
                -8.93442153930664
            ],
            [
                "\u2581\u5206",
                -8.749472618103027
            ],
            [
                "\u2581\u95a2\u3057",
                -8.743708610534668
            ],
            [
                "\u898b\u305f",
                -8.986231803894043
            ],
            [
                "\u3048",
                -8.949592590332031
            ],
            [
                "\u2581\u30e6\u30c0\u30e4",
                -8.692830085754395
            ],
            [
                "\u2581\u601d",
                -8.7810697555542
            ],
            [
                "D",
                -9.17883586883545
            ],
            [
                "\u2581\u898b\u308b",
                -8.779702186584473
            ],
            [
                "\u554f\u984c",
                -8.933977127075195
            ],
            [
                "\u2581\u611f\u3058",
                -8.759190559387207
            ],
            [
                "\u2581\u3082\u3061\u308d\u3093",
                -8.885976791381836
            ],
            [
                "\u2581%",
                -9.020589828491211
            ],
            [
                "\u2581morning",
                -8.776886940002441
            ],
            [
                "\u2581article",
                -8.758872985839844
            ],
            [
                "\u2581sense",
                -8.75965690612793
            ],
            [
                "\u4e16\u754c",
                -8.922517776489258
            ],
            [
                "B",
                -9.411865234375
            ],
            [
                "\u2581early",
                -8.781449317932129
            ],
            [
                "\u3068\u304d",
                -8.958630561828613
            ],
            [
                "\u2581\u884c\u304f",
                -8.861449241638184
            ],
            [
                "\u3067\u3059\u304c",
                -9.12318229675293
            ],
            [
                "\u2581\u3048\u3048",
                -8.960884094238281
            ],
            [
                "\u2581J",
                -9.308710098266602
            ],
            [
                "\u2581\u3068\u3066\u3082",
                -8.90746021270752
            ],
            [
                "\u2581\u611f\u8b1d",
                -8.793323516845703
            ],
            [
                "\u2581\u4e8b\u5b9f",
                -8.771066665649414
            ],
            [
                "\u2581\u6d3b\u52d5",
                -8.763494491577148
            ],
            [
                "\u3066\u3082",
                -8.983537673950195
            ],
            [
                "\u2581King",
                -8.771404266357422
            ],
            [
                "\u2581kingdom",
                -8.771234512329102
            ],
            [
                "\u2581\u3044\u3064",
                -8.866981506347656
            ],
            [
                "\u2581toward",
                -8.773357391357422
            ],
            [
                "\u6c17",
                -8.905038833618164
            ],
            [
                "\u2581large",
                -8.78931713104248
            ],
            [
                "\u2581\u30a2\u30c3\u30e9",
                -9.018680572509766
            ],
            [
                "ic",
                -9.239863395690918
            ],
            [
                "\u2581questions",
                -8.823548316955566
            ],
            [
                "\u2581needed",
                -8.805180549621582
            ],
            [
                "\u2581\u75c5\u6c17",
                -8.813440322875977
            ],
            [
                "\u9593",
                -8.888721466064453
            ],
            [
                "\u306a\u3044\u304b",
                -9.002126693725586
            ],
            [
                "\u2581\u805e",
                -8.866887092590332
            ],
            [
                "\u2581half",
                -8.799604415893555
            ],
            [
                "\u3005",
                -8.85886287689209
            ],
            [
                "\u2581experience",
                -8.78515338897705
            ],
            [
                "\u2581control",
                -8.785221099853516
            ],
            [
                "\u2581\u982d",
                -8.865447044372559
            ],
            [
                "\u2581Satan",
                -8.805015563964844
            ],
            [
                "\u2581Dr",
                -8.8240966796875
            ],
            [
                "\u3060\u304b\u3089",
                -9.026257514953613
            ],
            [
                "\u2581\u5b66\u6821",
                -8.839184761047363
            ],
            [
                "\u2581\u82e5\u3044",
                -8.817130088806152
            ],
            [
                "\u2581hands",
                -8.840312004089355
            ],
            [
                "\u2581religion",
                -8.79177474975586
            ],
            [
                "\u2581\u5168\u304f",
                -8.816326141357422
            ],
            [
                "\u2581\u559c\u3073",
                -8.796075820922852
            ],
            [
                "\u2581\u5e73\u548c",
                -8.80835247039795
            ],
            [
                "\u2581\u6ce8\u610f",
                -8.805855751037598
            ],
            [
                "\u2581G",
                -9.36566162109375
            ],
            [
                "\u2581\u751f\u304d",
                -8.839801788330078
            ],
            [
                "\u306a\u3093",
                -8.920215606689453
            ],
            [
                "\u2581\u540d",
                -8.801316261291504
            ],
            [
                "\u2581government",
                -8.796642303466797
            ],
            [
                "\u2581run",
                -8.79760456085205
            ],
            [
                "\u2581An",
                -8.874409675598145
            ],
            [
                "\u2581past",
                -8.81903076171875
            ],
            [
                "\u2581\u5f97\u308b",
                -8.791019439697266
            ],
            [
                "\u2581\u306a\u304c\u3089",
                -8.7715425491333
            ],
            [
                "\u2581myself",
                -8.823426246643066
            ],
            [
                "\u2581\u304f\u308c",
                -8.853313446044922
            ],
            [
                "\u2581\u5341\u5206",
                -8.82287883758545
            ],
            [
                "\u2581least",
                -8.823418617248535
            ],
            [
                "\u2581\u3044\u3064\u3082",
                -8.89572525024414
            ],
            [
                "\u2581\u653f\u5e9c",
                -8.846628189086914
            ],
            [
                "\u2581died",
                -8.830201148986816
            ],
            [
                "\u2581needs",
                -8.938789367675781
            ],
            [
                "\u2581\u7279\u306b",
                -8.871659278869629
            ],
            [
                "\u30c9\u30eb",
                -9.041975021362305
            ],
            [
                "\u2581\u5ba3\u6559",
                -8.835258483886719
            ],
            [
                "\u2581\u308f\u3051",
                -8.8018217086792
            ],
            [
                "\u2581\u592b",
                -8.84836483001709
            ],
            [
                "\u51fa\u6765",
                -9.004956245422363
            ],
            [
                "\u2581\u3088\u3044",
                -8.800713539123535
            ],
            [
                "\u2581\u30a2\u30e1\u30ea\u30ab",
                -8.898486137390137
            ],
            [
                "\u2581felt",
                -8.84141731262207
            ],
            [
                "\u3081",
                -9.075428009033203
            ],
            [
                "\u2581guys",
                -8.865340232849121
            ],
            [
                "\u2581R",
                -9.31522274017334
            ],
            [
                "\u3068\u3053\u308d",
                -9.000604629516602
            ],
            [
                "\u2581\u3054",
                -8.822486877441406
            ],
            [
                "\u2581hours",
                -8.861878395080566
            ],
            [
                "\u4e00\u7dd2",
                -8.982673645019531
            ],
            [
                "\u4e0b\u3055\u3044",
                -9.002604484558105
            ],
            [
                "\u2581\u5730\u7403",
                -8.891575813293457
            ],
            [
                "\u2581\u307e\u305a",
                -8.93154525756836
            ],
            [
                "\u2581Have",
                -8.848907470703125
            ],
            [
                "\u2581100",
                -9.57470989227295
            ],
            [
                "\u2581\u304a\u3051\u308b",
                -8.840078353881836
            ],
            [
                "\u2581\u305d\u3053\u3067",
                -8.969159126281738
            ],
            [
                "\u2581line",
                -8.831202507019043
            ],
            [
                "\u2581six",
                -8.855179786682129
            ],
            [
                "\u2581months",
                -8.870532989501953
            ],
            [
                "\u2581purpose",
                -8.841200828552246
            ],
            [
                "\u258140",
                -9.508891105651855
            ],
            [
                "\u258150",
                -9.431557655334473
            ],
            [
                "\u2581Be",
                -8.901914596557617
            ],
            [
                "\u2581door",
                -8.856191635131836
            ],
            [
                "\u2581\u540c\u69d8",
                -8.860041618347168
            ],
            [
                "\u3046\u304b",
                -9.193333625793457
            ],
            [
                "\u2581Those",
                -8.867033958435059
            ],
            [
                "\u2581Thus",
                -8.868598937988281
            ],
            [
                "\u2581\u6c17\u6301\u3061",
                -8.825039863586426
            ],
            [
                "\u2581\u52aa\u529b",
                -8.846336364746094
            ],
            [
                "\u304b\u3082\u3057",
                -9.068913459777832
            ],
            [
                "\u2581group",
                -8.852948188781738
            ],
            [
                "\u2581\u6700\u5f8c",
                -8.955010414123535
            ],
            [
                "\u2581\u3069\u308c",
                -8.90246295928955
            ],
            [
                "\u65b9\u6cd5",
                -9.038637161254883
            ],
            [
                "T",
                -9.475862503051758
            ],
            [
                "\u2581bit",
                -8.850460052490234
            ],
            [
                "\u2581following",
                -8.876155853271484
            ],
            [
                "\u2581knows",
                -9.14008903503418
            ],
            [
                "\u2581\u5553\u793a",
                -8.892712593078613
            ],
            [
                "\u2581\u5e0c\u671b",
                -8.85792350769043
            ],
            [
                "\u2581whether",
                -8.880815505981445
            ],
            [
                "\u2581serve",
                -8.864214897155762
            ],
            [
                "able",
                -9.12811279296875
            ],
            [
                "\u2581eat",
                -8.864812850952148
            ],
            [
                "\u56fd",
                -8.967120170593262
            ],
            [
                "\u2581almost",
                -8.882264137268066
            ],
            [
                "\u3041",
                -9.066882133483887
            ],
            [
                "\u3068\u8a00",
                -9.025309562683105
            ],
            [
                "\u2581\u5b58\u5728",
                -8.858552932739258
            ],
            [
                "\u2581\u8003\u3048\u308b",
                -8.862605094909668
            ],
            [
                "\u308c\u306a\u3044",
                -8.938987731933594
            ],
            [
                "\u597d\u304d",
                -9.053067207336426
            ],
            [
                "\u66f8",
                -9.053643226623535
            ],
            [
                "\u2581meet",
                -8.869282722473145
            ],
            [
                "\u2581\u8cea\u554f",
                -8.92602252960205
            ],
            [
                "\u2581boy",
                -8.870235443115234
            ],
            [
                "O",
                -9.128567695617676
            ],
            [
                "\u2581works",
                -9.000679016113281
            ],
            [
                "\u2581isn",
                -9.023515701293945
            ],
            [
                "\u2581personal",
                -8.89737606048584
            ],
            [
                "\u4eba\u9593",
                -9.048192977905273
            ],
            [
                "\u2581\u4ef2\u9593",
                -8.891358375549316
            ],
            [
                "\u2581\u30a4\u30b6\u30e4",
                -8.884230613708496
            ],
            [
                "\u2581marriage",
                -8.880585670471191
            ],
            [
                "\u2581re",
                -9.296036720275879
            ],
            [
                "\u2581situation",
                -8.881265640258789
            ],
            [
                "\u2581learned",
                -8.903277397155762
            ],
            [
                "\u306f\u305a",
                -9.047542572021484
            ],
            [
                "\u2581form",
                -8.999526023864746
            ],
            [
                "\u2581hell",
                -8.928703308105469
            ],
            [
                "\u305a",
                -9.031059265136719
            ],
            [
                "\u2581\u307f\u3093\u306a",
                -9.053227424621582
            ],
            [
                "\u2581\u79d1\u5b66",
                -8.893341064453125
            ],
            [
                "\u3057\u305f\u3044",
                -9.170422554016113
            ],
            [
                "\u2581hold",
                -8.883623123168945
            ],
            [
                "\u2581\u7d04",
                -8.971480369567871
            ],
            [
                "man",
                -9.077272415161133
            ],
            [
                "\u2581\u614b\u5ea6",
                -8.86496639251709
            ],
            [
                "\u2581L",
                -9.338022232055664
            ],
            [
                "\u2581\u3044\u3048",
                -8.934202194213867
            ],
            [
                "\u2581\u52d5\u7269",
                -8.915610313415527
            ],
            [
                "\u2581\u751f\u3058",
                -8.913262367248535
            ],
            [
                "\u2581\u59cb\u3081",
                -8.958405494689941
            ],
            [
                "\u2581follow",
                -8.891901016235352
            ],
            [
                "\u2581Jerusalem",
                -8.913890838623047
            ],
            [
                "\u306a\u3093\u3066",
                -9.085941314697266
            ],
            [
                "\u2581\u72b6\u6cc1",
                -8.913573265075684
            ],
            [
                "\u2581indeed",
                -8.91630744934082
            ],
            [
                "\u2581\u4f1d\u9053",
                -8.923136711120605
            ],
            [
                "\u30ca",
                -9.207229614257812
            ],
            [
                "\u4f7f",
                -9.106566429138184
            ],
            [
                "\u2581\u25c6",
                -9.45630168914795
            ],
            [
                "\u2581Son",
                -8.937808990478516
            ],
            [
                "\u2581\u305d\u308c\u3067\u3082",
                -8.974126815795898
            ],
            [
                "\u5834\u5408",
                -9.049422264099121
            ],
            [
                "\u3059\u308b\u3068",
                -9.136775016784668
            ],
            [
                "\u2581share",
                -8.90125846862793
            ],
            [
                "\u610f\u5473",
                -9.084921836853027
            ],
            [
                "\u2581message",
                -8.902082443237305
            ],
            [
                "\u2581self",
                -8.922893524169922
            ],
            [
                "\u2581\u81ea\u7531",
                -8.930096626281738
            ],
            [
                "\u3064\u306e",
                -9.124723434448242
            ],
            [
                "\u3078\u306e",
                -9.143013000488281
            ],
            [
                "\u2581value",
                -8.905441284179688
            ],
            [
                "\u4eba\u304c",
                -9.160945892333984
            ],
            [
                "\u30c0",
                -9.190801620483398
            ],
            [
                "\u2581\u970a",
                -8.899454116821289
            ],
            [
                "\u591a\u304f",
                -9.081573486328125
            ],
            [
                "\u2581\u3058\u3083",
                -9.177972793579102
            ],
            [
                "\u2581language",
                -8.904260635375977
            ],
            [
                "\u3044\u306a\u3044",
                -9.023763656616211
            ],
            [
                "\u540d",
                -9.06803035736084
            ],
            [
                "\u7121\u3044",
                -9.107595443725586
            ],
            [
                "\u2581\u3044\u3063",
                -9.0498685836792
            ],
            [
                "\u2581\u53f7",
                -8.942573547363281
            ],
            [
                "\u2581business",
                -8.941328048706055
            ],
            [
                "\u2581rest",
                -8.940400123596191
            ],
            [
                "\u2581everyone",
                -8.94405460357666
            ],
            [
                "\u2581\u305f\u3089",
                -9.012476921081543
            ],
            [
                "\u6c34",
                -9.099142074584961
            ],
            [
                "\u2581\u6bcd",
                -9.022643089294434
            ],
            [
                "\u2581easy",
                -8.943982124328613
            ],
            [
                "\u2581\u3082\u3068",
                -9.138847351074219
            ],
            [
                "\u2581\u30eb\u30ab",
                -8.926652908325195
            ],
            [
                "\u2581\u82e5\u8005",
                -8.92586612701416
            ],
            [
                "\u77e5\u3063",
                -8.791448593139648
            ],
            [
                "\u2581gone",
                -8.94568157196045
            ],
            [
                "\u2581Does",
                -8.94279670715332
            ],
            [
                "\u2581Since",
                -8.947430610656738
            ],
            [
                "\u2581giving",
                -8.947196006774902
            ],
            [
                "\u307b\u3069",
                -9.109066009521484
            ],
            [
                "\u4fe1\u3058",
                -9.10714054107666
            ],
            [
                "\u2581return",
                -8.925887107849121
            ],
            [
                "p",
                -9.427435874938965
            ],
            [
                "\u25811,",
                -9.16554069519043
            ],
            [
                "\u2581maybe",
                -8.94783878326416
            ],
            [
                "\u2581goes",
                -8.953063011169434
            ],
            [
                "\u2581\u5973",
                -9.013365745544434
            ],
            [
                "\u2581history",
                -8.953201293945312
            ],
            [
                "\u2581longer",
                -8.954238891601562
            ],
            [
                "\u2581wait",
                -8.945667266845703
            ],
            [
                "\u2581fire",
                -8.935384750366211
            ],
            [
                "\u2581\u5f1f\u5b50",
                -8.888508796691895
            ],
            [
                "\u901a\u308a",
                -9.112007141113281
            ],
            [
                "\u2581Will",
                -8.950921058654785
            ],
            [
                "\u2581\u5fe0\u5b9f",
                -8.915294647216797
            ],
            [
                "\u2581\u5185",
                -8.968143463134766
            ],
            [
                "\u4f1a",
                -9.070395469665527
            ],
            [
                "6",
                -9.294157981872559
            ],
            [
                "\u6765\u308b",
                -9.143938064575195
            ],
            [
                "\u2581\u7537",
                -9.020322799682617
            ],
            [
                "\u2581happen",
                -8.93798542022705
            ],
            [
                "\u2581play",
                -8.941679954528809
            ],
            [
                "\u2581evidence",
                -8.945417404174805
            ],
            [
                "\u2581within",
                -8.973743438720703
            ],
            [
                "\u2581rather",
                -8.963618278503418
            ],
            [
                "\u2581quite",
                -8.966779708862305
            ],
            [
                "\u2581trust",
                -8.964101791381836
            ],
            [
                "\u2581behind",
                -8.967530250549316
            ],
            [
                "\u2581stand",
                -8.947190284729004
            ],
            [
                "\u2581health",
                -8.969992637634277
            ],
            [
                "\u2581special",
                -8.96703052520752
            ],
            [
                "\u2581\u304a\u3088\u3073",
                -8.930121421813965
            ],
            [
                "\u2581feet",
                -8.970977783203125
            ],
            [
                "\u2581\u884c\u306a\u3063",
                -8.914055824279785
            ],
            [
                "\u2581H",
                -9.413993835449219
            ],
            [
                "\u2581Matthew",
                -8.973705291748047
            ],
            [
                "\u2581humans",
                -9.023972511291504
            ],
            [
                "\u2581\u6b8b",
                -9.018617630004883
            ],
            [
                "\u2581preaching",
                -8.97609806060791
            ],
            [
                "\u2581faithful",
                -8.974996566772461
            ],
            [
                "L",
                -9.780948638916016
            ],
            [
                "\u30ea",
                -9.305365562438965
            ],
            [
                "\u2581\u306d",
                -9.111103057861328
            ],
            [
                "\u2581area",
                -8.9777193069458
            ],
            [
                "\u2581itself",
                -8.976418495178223
            ],
            [
                "\u3057\u308d",
                -9.141963005065918
            ],
            [
                "\u2581state",
                -8.958663940429688
            ],
            [
                "\u2581baby",
                -8.977886199951172
            ],
            [
                "ness",
                -9.013982772827148
            ],
            [
                "\u25814:",
                -8.978706359863281
            ],
            [
                "\u4e07",
                -9.10815715789795
            ],
            [
                "\u2581\u7d42\u308f\u308a",
                -8.983023643493652
            ],
            [
                "\u2581near",
                -8.977444648742676
            ],
            [
                "\u2581\u5f8b\u6cd5",
                -8.9509916305542
            ],
            [
                "\u2581\u8a18",
                -8.960493087768555
            ],
            [
                "\u2581\u56fd\u6c11",
                -8.945185661315918
            ],
            [
                "\u2581\u7d44\u7e54",
                -8.980541229248047
            ],
            [
                "\u2581\u53d7\u3051\u308b",
                -8.958321571350098
            ],
            [
                "\u2581inside",
                -8.988763809204102
            ],
            [
                "\u308a\u307e",
                -9.029221534729004
            ],
            [
                "\u2581Right",
                -8.967877388000488
            ],
            [
                "\u306f\u305d\u306e",
                -9.231935501098633
            ],
            [
                "\u2581ready",
                -8.991873741149902
            ],
            [
                "\u5143",
                -9.075932502746582
            ],
            [
                "\u2581certainly",
                -8.995959281921387
            ],
            [
                "\u2581York",
                -9.004778861999512
            ],
            [
                "\u2581Maybe",
                -8.994569778442383
            ],
            [
                "\u5f0f",
                -9.12055778503418
            ],
            [
                "\u2581\u606f\u5b50",
                -9.031188011169434
            ],
            [
                "\u2581holy",
                -8.998709678649902
            ],
            [
                "\u2581\u5ea6",
                -9.031710624694824
            ],
            [
                "\u2581\u95a2\u5fc3",
                -8.985987663269043
            ],
            [
                "\u2581\u30b5\u30bf\u30f3",
                -8.957866668701172
            ],
            [
                "\u2581\u6226\u4e89",
                -9.008437156677246
            ],
            [
                "\u30e9",
                -9.292271614074707
            ],
            [
                ",\"",
                -9.202136039733887
            ],
            [
                "\u2581consider",
                -8.980368614196777
            ],
            [
                "\u2581story",
                -9.002150535583496
            ],
            [
                "\u2581\u30d8\u30d6\u30e9\u30a4",
                -8.96650505065918
            ],
            [
                "\u2581\u30c6\u30e2\u30c6",
                -8.997312545776367
            ],
            [
                "\u3068\u304b",
                -9.347671508789062
            ],
            [
                "\u2581\u60aa\u3044",
                -9.045899391174316
            ],
            [
                "\u2581pay",
                -8.982451438903809
            ],
            [
                "\u96fb\u8a71",
                -9.171072006225586
            ],
            [
                "\u4f5c",
                -9.131905555725098
            ],
            [
                "\u2581\u72a0\u7272",
                -8.975772857666016
            ],
            [
                "\u307e\u3060",
                -9.19392204284668
            ],
            [
                "U",
                -9.627958297729492
            ],
            [
                "\u2581\u8a8d\u3081",
                -8.95646858215332
            ],
            [
                "\u2581\u793e\u4f1a",
                -8.990132331848145
            ],
            [
                "\u3088\u304f",
                -9.169575691223145
            ],
            [
                "\u25811:",
                -9.019062995910645
            ],
            [
                "\u2581\u4e0e\u3048\u308b",
                -8.977934837341309
            ],
            [
                "\u3088\u3046\u306a",
                -9.22484016418457
            ],
            [
                "\u2581especially",
                -9.010502815246582
            ],
            [
                "\u2581church",
                -9.010261535644531
            ],
            [
                "\u2581\u547c\u3070",
                -9.030457496643066
            ],
            [
                "\u2581\u6700\u8fd1",
                -9.052286148071289
            ],
            [
                "\u2581disciples",
                -9.016268730163574
            ],
            [
                "\u2581\u4ee5\u524d",
                -9.026856422424316
            ],
            [
                "\u898b\u3064\u3051",
                -9.164552688598633
            ],
            [
                "\u307e\u305b",
                -8.748247146606445
            ],
            [
                "\u671f",
                -9.05179214477539
            ],
            [
                "\u2581\u3042\u3089\u3086\u308b",
                -8.994118690490723
            ],
            [
                "\u2581People",
                -9.00927448272705
            ],
            [
                "\u2581N",
                -9.612031936645508
            ],
            [
                "\u2581ten",
                -8.992181777954102
            ],
            [
                "\u2581\u77e5\u8b58",
                -9.00687026977539
            ],
            [
                "\u2581tried",
                -9.017451286315918
            ],
            [
                "\u2581equal",
                -8.993794441223145
            ],
            [
                "\u2581heaven",
                -8.999885559082031
            ],
            [
                "\u2581building",
                -9.00240421295166
            ],
            [
                "\u2581sir",
                -9.017949104309082
            ],
            [
                "\u2581\u30d0\u30d7\u30c6\u30b9\u30de",
                -9.010772705078125
            ],
            [
                "\u2581attention",
                -9.020984649658203
            ],
            [
                "\u2581\u6c7a\u3057\u3066",
                -9.0212984085083
            ],
            [
                "\u3082\u3057",
                -9.188398361206055
            ],
            [
                "\u306b\u3088\u3063\u3066",
                -9.203006744384766
            ],
            [
                "\u2581\u9577\u8001",
                -9.000542640686035
            ],
            [
                "\u2581\u5dde",
                -9.013132095336914
            ],
            [
                "\u2581support",
                -9.00389289855957
            ],
            [
                "\u2581week",
                -9.007707595825195
            ],
            [
                "\u2581\u3084\u3081",
                -9.150022506713867
            ],
            [
                "\u2581\u8af8",
                -8.989554405212402
            ],
            [
                "an",
                -9.20389175415039
            ],
            [
                "\u2581\u6765\u308b",
                -9.025386810302734
            ],
            [
                "\u2581continue",
                -9.009222984313965
            ],
            [
                "\u2581\u7a2e",
                -9.044512748718262
            ],
            [
                "\u2581\u7bb4\u8a00",
                -9.03714370727539
            ],
            [
                "\u5f7c\u3089",
                -9.1492919921875
            ],
            [
                "ation",
                -9.566044807434082
            ],
            [
                "\u2581probably",
                -9.028773307800293
            ],
            [
                "\u2581Like",
                -9.030275344848633
            ],
            [
                "\u50d5",
                -9.191092491149902
            ],
            [
                "\u2581ancient",
                -9.035553932189941
            ],
            [
                "\u2581\u795d\u798f",
                -9.0230712890625
            ],
            [
                "\u542b\u307e",
                -9.05738353729248
            ],
            [
                "\u3063\u305f\u3089",
                -9.238473892211914
            ],
            [
                "\u30d5",
                -9.332452774047852
            ],
            [
                "\u2581Scriptures",
                -9.04246997833252
            ],
            [
                "\u2581according",
                -9.038033485412598
            ],
            [
                "\u2581\u307b\u3046",
                -9.014148712158203
            ],
            [
                "\u2581\u8a8c",
                -9.029932975769043
            ],
            [
                "\u2581\u5927\u4f1a",
                -9.056599617004395
            ],
            [
                "\u5148",
                -9.135555267333984
            ],
            [
                "\u7528",
                -9.21327018737793
            ],
            [
                "\u2581\u884c\u306a\u3044",
                -9.010647773742676
            ],
            [
                "\u2581lead",
                -9.021705627441406
            ],
            [
                "\u3068\u3082",
                -9.282464027404785
            ],
            [
                "\u2581sin",
                -9.024585723876953
            ],
            [
                "on",
                -9.265424728393555
            ],
            [
                "\u2581\u5e78\u798f",
                -9.029816627502441
            ],
            [
                "\u2581\u751f",
                -9.068774223327637
            ],
            [
                "\u2581\u500b\u4eba",
                -9.043683052062988
            ],
            [
                "\u2581difficult",
                -9.044967651367188
            ],
            [
                "\u305f\u304f",
                -9.181062698364258
            ],
            [
                "\u2581\u51fa\u5e2d",
                -9.056328773498535
            ],
            [
                "\u2581either",
                -9.043869972229004
            ],
            [
                "\u2581\u7fa9",
                -9.044222831726074
            ],
            [
                "\u2581king",
                -9.036577224731445
            ],
            [
                "\u547d",
                -9.13620376586914
            ],
            [
                "\u2581W",
                -9.701025009155273
            ],
            [
                "\u2581\u30ab\u30c8\u30ea\u30c3\u30af",
                -9.012349128723145
            ],
            [
                "\u2581\u76ca",
                -9.046330451965332
            ],
            [
                "h",
                -9.288047790527344
            ],
            [
                "M",
                -9.659111976623535
            ],
            [
                "\u2581\u5909\u5316",
                -9.078927993774414
            ],
            [
                "\u25815:",
                -9.04537296295166
            ],
            [
                "\u2581\u7d19",
                -9.014973640441895
            ],
            [
                "\u3064\u3082\u308a",
                -9.220086097717285
            ],
            [
                "\u2581\u4f8b",
                -9.110185623168945
            ],
            [
                "\u2581\u305a\u3063",
                -9.119125366210938
            ],
            [
                "\u8a9e",
                -9.176529884338379
            ],
            [
                "\u2581\u969b",
                -8.991399765014648
            ],
            [
                "\u308b\u304b",
                -8.990486145019531
            ],
            [
                "\u2581\u4e00\u90e8",
                -9.052270889282227
            ],
            [
                "\u2581public",
                -9.056142807006836
            ],
            [
                "\u2581strong",
                -9.056209564208984
            ],
            [
                "\u304f\u308c\u308b",
                -9.262531280517578
            ],
            [
                "\u70b9",
                -9.2095308303833
            ],
            [
                "\u2581Tom",
                -9.067305564880371
            ],
            [
                "\u258128",
                -9.342242240905762
            ],
            [
                "\u2581members",
                -9.069425582885742
            ],
            [
                "\u3053",
                -9.20127010345459
            ],
            [
                "\u30ab",
                -9.350043296813965
            ],
            [
                "\u2581write",
                -9.031758308410645
            ],
            [
                "\u6559\u3048",
                -9.214852333068848
            ],
            [
                "\u308c\u308b",
                -9.197042465209961
            ],
            [
                "\u2581\u8a00\u3048",
                -9.103267669677734
            ],
            [
                "\u2581wants",
                -9.222599983215332
            ],
            [
                "\u2581involved",
                -9.063424110412598
            ],
            [
                "\u2581\u7686",
                -9.150927543640137
            ],
            [
                "\u3057\u304b",
                -9.168627738952637
            ],
            [
                "\u2581created",
                -9.067678451538086
            ],
            [
                "\u2581reading",
                -9.073304176330566
            ],
            [
                "\u2581\u90fd\u5e02",
                -9.068346977233887
            ],
            [
                "\u2581\u3042",
                -9.167248725891113
            ],
            [
                "\u2581\u5c06\u6765",
                -9.068619728088379
            ],
            [
                "\u2581air",
                -9.072487831115723
            ],
            [
                "\u5c11\u3057",
                -9.233051300048828
            ],
            [
                "\u2581countries",
                -9.071504592895508
            ],
            [
                "\u2581\u5206\u304b\u308a",
                -9.115171432495117
            ],
            [
                "\u2581\u6050\u308c",
                -9.068592071533203
            ],
            [
                "\u2581de",
                -9.421727180480957
            ],
            [
                "\u2581listen",
                -9.051352500915527
            ],
            [
                "\u7dda",
                -9.212275505065918
            ],
            [
                "\u2581\u81ea",
                -9.104360580444336
            ],
            [
                "\u6b7b\u3093",
                -9.469525337219238
            ],
            [
                "\u91d1",
                -9.213733673095703
            ],
            [
                "\u2581\u5730\u57df",
                -9.086496353149414
            ],
            [
                "\u6a5f",
                -9.23717975616455
            ],
            [
                "\u2581\u96c6\u4f1a",
                -9.08577823638916
            ],
            [
                "\u2581\u897f\u66a6",
                -9.057757377624512
            ],
            [
                "en",
                -9.44497299194336
            ],
            [
                "\u2581\u5c0f\u3055\u306a",
                -9.117995262145996
            ],
            [
                "?\"",
                -9.132746696472168
            ],
            [
                "it",
                -9.44934368133545
            ],
            [
                "\u2581whatever",
                -9.084004402160645
            ],
            [
                "\u2581beautiful",
                -9.086101531982422
            ],
            [
                "\u2581Catholic",
                -9.065353393554688
            ],
            [
                "\u2581account",
                -9.065888404846191
            ],
            [
                "\u2581pretty",
                -9.085007667541504
            ],
            [
                "\u2581See",
                -9.080065727233887
            ],
            [
                "\u2581helped",
                -9.093621253967285
            ],
            [
                "\u2581report",
                -9.064252853393555
            ],
            [
                "\u2581servants",
                -9.095083236694336
            ],
            [
                "\u2581\u308f\u308c",
                -9.283500671386719
            ],
            [
                "\u2581\u81ea\u8eab",
                -9.042083740234375
            ],
            [
                "\u2581\u6728",
                -9.134262084960938
            ],
            [
                "\u306a\u3069",
                -9.22391128540039
            ],
            [
                "\u5024",
                -9.25654411315918
            ],
            [
                "\u2581turned",
                -9.091941833496094
            ],
            [
                "\u2581minutes",
                -9.101253509521484
            ],
            [
                "\u2581common",
                -9.090654373168945
            ],
            [
                "\u2581deal",
                -9.067809104919434
            ],
            [
                "\u2581\u884c\u304d",
                -9.167760848999023
            ],
            [
                "\u2581uh",
                -9.085728645324707
            ],
            [
                "\u8a00\u8449",
                -9.250171661376953
            ],
            [
                "\u304f\u308b",
                -9.293124198913574
            ],
            [
                "\u5316",
                -9.268712043762207
            ],
            [
                "\u2581\u6b7b\u3093",
                -9.24542236328125
            ],
            [
                "\u751f",
                -9.218817710876465
            ],
            [
                "\u2581\u601d\u308f",
                -9.08734130859375
            ],
            [
                "\u3059\u3050",
                -9.266197204589844
            ],
            [
                "\u2581\u6b74\u53f2",
                -9.08769702911377
            ],
            [
                "\u306b\u5165",
                -9.28349494934082
            ],
            [
                "\u306a\u308b",
                -9.195527076721191
            ],
            [
                "\u2581\u7cbe\u795e",
                -9.090132713317871
            ],
            [
                "\u77e5\u3089",
                -9.332459449768066
            ],
            [
                "\u2581walk",
                -9.078582763671875
            ],
            [
                "\u2581respect",
                -9.081015586853027
            ],
            [
                "\u2581\u5148",
                -9.190274238586426
            ],
            [
                "\u52d5",
                -9.233742713928223
            ],
            [
                "\u2581THE",
                -9.102680206298828
            ],
            [
                "\u258126",
                -9.483500480651855
            ],
            [
                "\u2581\u5974",
                -9.297919273376465
            ],
            [
                "\u2581\u3082\u3063",
                -9.181429862976074
            ],
            [
                "\u898b\u308b",
                -9.314876556396484
            ],
            [
                "\u2581simply",
                -9.103014945983887
            ],
            [
                "\u2581\u4fa1\u5024",
                -9.080183982849121
            ],
            [
                "\u982d",
                -9.243659973144531
            ],
            [
                "\u6c11",
                -9.240663528442383
            ],
            [
                "\u2581\u8d77\u304d",
                -9.119380950927734
            ],
            [
                "\u2581seems",
                -9.125120162963867
            ],
            [
                "\u5165\u3063",
                -9.290236473083496
            ],
            [
                "\u2581relationship",
                -9.09276294708252
            ],
            [
                "\u2581\u8a33",
                -9.064920425415039
            ],
            [
                "\u2581promise",
                -9.092551231384277
            ],
            [
                "\u2581\u540d\u524d",
                -9.198251724243164
            ],
            [
                "\u25816:",
                -9.113593101501465
            ],
            [
                "\u611f\u3058",
                -9.272921562194824
            ],
            [
                "\u2581\u7d9a\u3051",
                -9.14126968383789
            ],
            [
                "\u2581gives",
                -9.204268455505371
            ],
            [
                "\u79c1\u305f\u3061",
                -9.27815055847168
            ],
            [
                "\u2581enjoy",
                -9.09988021850586
            ],
            [
                "\u2581\u53ef\u80fd",
                -9.09800910949707
            ],
            [
                "\u2581above",
                -9.1195650100708
            ],
            [
                "\u2581Uh",
                -9.118730545043945
            ],
            [
                "\u2581righteous",
                -9.121745109558105
            ],
            [
                "\u2581kept",
                -9.122186660766602
            ],
            [
                "\u2581couple",
                -9.101755142211914
            ],
            [
                "\u2581\u6b63\u3057\u3044",
                -9.138410568237305
            ],
            [
                "\u2581serious",
                -9.122032165527344
            ],
            [
                "\u2581seem",
                -9.12397289276123
            ],
            [
                "\u2581forth",
                -9.137269020080566
            ],
            [
                "\u2581Moses",
                -9.124488830566406
            ],
            [
                "\u2581position",
                -9.105766296386719
            ],
            [
                "You",
                -9.147603034973145
            ],
            [
                "\u2581nation",
                -9.105660438537598
            ],
            [
                "\u95a2",
                -9.215882301330566
            ],
            [
                "\u2581interest",
                -9.10575008392334
            ],
            [
                "\u2581class",
                -9.124882698059082
            ],
            [
                "\u2581loving",
                -9.128457069396973
            ],
            [
                "\u2581\u305f\u3088\u308a",
                -9.13621997833252
            ],
            [
                "\u2581m",
                -9.473607063293457
            ],
            [
                "\u2581\u3055\u3042",
                -9.312254905700684
            ],
            [
                "\u2581sound",
                -9.111333847045898
            ],
            [
                "\u2581\u91d1",
                -9.223897933959961
            ],
            [
                "\u2581\u3042\u3068",
                -9.206055641174316
            ],
            [
                "\u70ba",
                -9.298778533935547
            ],
            [
                "\u2581p",
                -9.411971092224121
            ],
            [
                "\u2581\u8a3c\u62e0",
                -9.132547378540039
            ],
            [
                "\u2581prayer",
                -9.114861488342285
            ],
            [
                "8",
                -9.645546913146973
            ],
            [
                "g",
                -9.515743255615234
            ],
            [
                "\u6b7b",
                -9.072821617126465
            ],
            [
                "\u2581desire",
                -9.115909576416016
            ],
            [
                "\u2581\u53e3",
                -9.17306900024414
            ],
            [
                "\u540d\u524d",
                -9.297096252441406
            ],
            [
                "\u2581heavens",
                -9.159900665283203
            ],
            [
                "\u2581Most",
                -9.13659381866455
            ],
            [
                "\u5b50\u4f9b",
                -9.283726692199707
            ],
            [
                "\u2581late",
                -9.137611389160156
            ],
            [
                "\u304b\u3051",
                -9.318499565124512
            ],
            [
                "7",
                -9.571331024169922
            ],
            [
                "\u2581\u30c0\u30d3\u30c7",
                -9.087172508239746
            ],
            [
                "\u5b66",
                -9.276325225830078
            ],
            [
                "\u884c\u3063",
                -8.756966590881348
            ],
            [
                "\u2581cut",
                -9.129364013671875
            ],
            [
                "\u2581local",
                -9.137899398803711
            ],
            [
                "\u2581thus",
                -9.141836166381836
            ],
            [
                "\u4e00\u3064",
                -9.287489891052246
            ],
            [
                "\u2581ourselves",
                -9.142059326171875
            ],
            [
                "\u2581teaching",
                -9.125933647155762
            ],
            [
                "\u3044\u3046",
                -9.238519668579102
            ],
            [
                "\u3089\u3070",
                -9.594285011291504
            ],
            [
                "\u2581soul",
                -9.125207901000977
            ],
            [
                "\u2581save",
                -9.126307487487793
            ],
            [
                "\u2581Would",
                -9.094792366027832
            ],
            [
                "\u2581\u6bcd\u89aa",
                -9.183286666870117
            ],
            [
                "\u4ee5\u4e0a",
                -9.310012817382812
            ],
            [
                "\u95a2\u4fc2",
                -9.309988021850586
            ],
            [
                "\u2581single",
                -9.145112037658691
            ],
            [
                "F",
                -9.811410903930664
            ],
            [
                "\u2581outside",
                -9.145779609680176
            ],
            [
                "\u2581\u9053\u5fb3",
                -9.077048301696777
            ],
            [
                "\u2581fellow",
                -9.149144172668457
            ],
            [
                "\u2581ministry",
                -9.149811744689941
            ],
            [
                "\u2581\u4f1d\u3048",
                -9.144501686096191
            ],
            [
                "\u2581met",
                -9.276534080505371
            ],
            [
                "\u3080",
                -9.370471954345703
            ],
            [
                "\u30c7",
                -9.496376991271973
            ],
            [
                "us",
                -9.541316032409668
            ],
            [
                "\u2581shows",
                -9.206018447875977
            ],
            [
                "\u2581\u653f\u6cbb",
                -9.15450382232666
            ],
            [
                "\u2581miles",
                -9.157930374145508
            ],
            [
                "\u2581states",
                -9.177717208862305
            ],
            [
                "\u2581alive",
                -9.158329010009766
            ],
            [
                "\u2581takes",
                -9.298200607299805
            ],
            [
                "\u2581\u30a8\u30eb\u30b5\u30ec\u30e0",
                -9.089949607849121
            ],
            [
                "\u2581i",
                -9.268840789794922
            ],
            [
                "\u2581received",
                -9.161657333374023
            ],
            [
                "\u304b\u3082",
                -9.433244705200195
            ],
            [
                "\u59cb\u3081",
                -9.3200101852417
            ],
            [
                "\u2581Take",
                -9.160798072814941
            ],
            [
                "\u2581\u30a2\u30d5\u30ea\u30ab",
                -9.199053764343262
            ],
            [
                "\u2581\u5f53\u6642",
                -9.169509887695312
            ],
            [
                "\u2581\u611f\u60c5",
                -9.136651039123535
            ],
            [
                "\u2581married",
                -9.162918090820312
            ],
            [
                "\u2581English",
                -9.162014961242676
            ],
            [
                "\u2581including",
                -9.163108825683594
            ],
            [
                "\u5165\u308c",
                -9.325201034545898
            ],
            [
                "\u2581\u77e5\u308b",
                -9.144688606262207
            ],
            [
                "\u304c\u306a\u3044",
                -9.524916648864746
            ],
            [
                "\u4e0e\u3048",
                -9.165350914001465
            ],
            [
                "\u2581witnesses",
                -9.15848445892334
            ],
            [
                "\u2581\u4eba\u751f",
                -9.210196495056152
            ],
            [
                "\u3055\u305b\u308b",
                -9.361071586608887
            ],
            [
                "\u2581Psalm",
                -9.15184211730957
            ],
            [
                "\u5b98",
                -9.321937561035156
            ],
            [
                "ting",
                -9.289244651794434
            ],
            [
                "\u52a9\u3051",
                -9.335247039794922
            ],
            [
                "\u2581act",
                -9.151511192321777
            ],
            [
                "\u304b\u3063",
                -8.890257835388184
            ],
            [
                "\u2581According",
                -9.17158031463623
            ],
            [
                "\u2581\u3042\u3093\u305f",
                -9.356476783752441
            ],
            [
                "\u2581fight",
                -9.15307331085205
            ],
            [
                "\u2581\u8ab0\u304b",
                -9.367217063903809
            ],
            [
                "\u2581\u884c\u70ba",
                -9.120896339416504
            ],
            [
                "\u2581f",
                -9.892046928405762
            ],
            [
                "\u2581\u666e\u901a",
                -9.227416038513184
            ],
            [
                "f",
                -9.980035781860352
            ],
            [
                "0",
                -9.350461959838867
            ],
            [
                "\u2581joy",
                -9.162282943725586
            ],
            [
                "\u30ed",
                -9.46249008178711
            ],
            [
                "\u2581Him",
                -9.185467720031738
            ],
            [
                "\u2581short",
                -9.181385040283203
            ],
            [
                "\u2581\u8cac\u4efb",
                -9.17457103729248
            ],
            [
                "\u2581While",
                -9.186628341674805
            ],
            [
                "\u2581\u4f4f\u3080",
                -9.161619186401367
            ],
            [
                "\u2581office",
                -9.168312072753906
            ],
            [
                "\u2581American",
                -9.165603637695312
            ],
            [
                "\u2581sister",
                -9.170232772827148
            ],
            [
                "\u2581\u601d\u3046",
                -9.182982444763184
            ],
            [
                "\u2581perfect",
                -9.186220169067383
            ],
            [
                "\u2581\u304f\u3060\u3055\u308b",
                -9.089085578918457
            ],
            [
                "\u2581greater",
                -9.189740180969238
            ],
            [
                "\u2581looks",
                -9.278097152709961
            ],
            [
                "\u308f\u3051",
                -9.362089157104492
            ],
            [
                "\u89e3",
                -9.36072063446045
            ],
            [
                "\u2581\u533b\u5e2b",
                -9.2031831741333
            ],
            [
                "\u2581Isaiah",
                -9.192033767700195
            ],
            [
                "\u2581fucking",
                -9.191441535949707
            ],
            [
                "\u2581seven",
                -9.190041542053223
            ],
            [
                "\u8eab",
                -9.319522857666016
            ],
            [
                "k",
                -9.593802452087402
            ],
            [
                "\u2581\u5f93",
                -9.185593605041504
            ],
            [
                "\u2581entire",
                -9.192584037780762
            ],
            [
                "\u2581further",
                -9.192445755004883
            ],
            [
                "\u2581\u69d8\u3005",
                -9.192931175231934
            ],
            [
                "\u2581meeting",
                -9.180098533630371
            ],
            [
                "\u5168\u3066",
                -9.359206199645996
            ],
            [
                "\u2581\u60aa",
                -9.228129386901855
            ],
            [
                "\u2581\u65e5\u672c",
                -9.282783508300781
            ],
            [
                "\u6cd5",
                -9.310683250427246
            ],
            [
                "\u2581\u5065\u5eb7",
                -9.19735050201416
            ],
            [
                "\u2581\u3088\u308c",
                -9.176318168640137
            ],
            [
                "\u884c\u304d",
                -9.416019439697266
            ],
            [
                "\u2581wisdom",
                -9.199926376342773
            ],
            [
                "G",
                -9.80895709991455
            ],
            [
                "\u2581\u5a18",
                -9.254234313964844
            ],
            [
                "\u2581\u5916",
                -9.302226066589355
            ],
            [
                "\u30de\u30f3",
                -9.426515579223633
            ],
            [
                "\u3053\u305d",
                -9.360674858093262
            ],
            [
                "\u2581\u901a\u3057",
                -9.150465965270996
            ],
            [
                "\u2581police",
                -9.200160026550293
            ],
            [
                "\u3082\u306a\u3044",
                -9.527027130126953
            ],
            [
                "\u2581\u3053\u3068\u3070",
                -9.17614459991455
            ],
            [
                "\u2581exactly",
                -9.205764770507812
            ],
            [
                "\u2581front",
                -9.206340789794922
            ],
            [
                "\u2581magazine",
                -9.191102027893066
            ],
            [
                "\u2581Their",
                -9.208212852478027
            ],
            [
                "\u2581watch",
                -9.209735870361328
            ],
            [
                "\u3064\u3051",
                -9.391427993774414
            ],
            [
                "\u9762",
                -9.36425495147705
            ],
            [
                "\u2581\u8840",
                -9.26774787902832
            ],
            [
                "\u2581counsel",
                -9.194746017456055
            ],
            [
                "\u2581\u5b89\u5168",
                -9.25007438659668
            ],
            [
                "\u2581\u52a9\u8a00",
                -9.182628631591797
            ],
            [
                "\u2581\u52e7\u3081",
                -9.202559471130371
            ],
            [
                "\u2581nice",
                -9.213067054748535
            ],
            [
                "\u2581Today",
                -9.214984893798828
            ],
            [
                "\u2581\u78ba\u4fe1",
                -9.182768821716309
            ],
            [
                "\u258133",
                -9.732815742492676
            ],
            [
                "\u2581\u4e00\u822c",
                -9.217262268066406
            ],
            [
                "\u5ff5",
                -9.328097343444824
            ],
            [
                "ion",
                -9.538763046264648
            ],
            [
                "\u30d5\u30a1\u30a4\u30eb",
                -9.374333381652832
            ],
            [
                "\u623b",
                -9.34283447265625
            ],
            [
                "\u305f\u304b",
                -9.407195091247559
            ],
            [
                "\u2581whose",
                -9.223944664001465
            ],
            [
                "\u2581\u73fe\u4ee3",
                -9.223271369934082
            ],
            [
                "\u2581born",
                -9.224992752075195
            ],
            [
                "u",
                -9.46959400177002
            ],
            [
                "\u306e\u3082\u306e",
                -9.466052055358887
            ],
            [
                "\u2581\u60c5\u5831",
                -9.241623878479004
            ],
            [
                "\u2581\u4fe1\u983c",
                -9.232291221618652
            ],
            [
                "\u2581sea",
                -9.211820602416992
            ],
            [
                "\u7b11",
                -9.384886741638184
            ],
            [
                "\u2581avoid",
                -9.226954460144043
            ],
            [
                "\u2581rule",
                -9.209708213806152
            ],
            [
                "\u2581modern",
                -9.229277610778809
            ],
            [
                "\u2581therefore",
                -9.229296684265137
            ],
            [
                "\u2581\u6c38\u9060",
                -9.204619407653809
            ],
            [
                "\u2581Jews",
                -9.234026908874512
            ],
            [
                "\u3060\u304c",
                -9.781305313110352
            ],
            [
                "\u2581\u4f1a",
                -9.254853248596191
            ],
            [
                "\u3059\u3079\u3066",
                -9.303364753723145
            ],
            [
                "\u2581Me",
                -9.3190279006958
            ],
            [
                "\u2581\u3068\u304a\u308a",
                -9.22236442565918
            ],
            [
                "\u2581phone",
                -9.213055610656738
            ],
            [
                "\u2581\u884c",
                -9.293039321899414
            ],
            [
                "\u2581\u56de",
                -9.285175323486328
            ],
            [
                "\u2581\u4e09",
                -9.261363983154297
            ],
            [
                "\u2581\u898b\u65b9",
                -9.236821174621582
            ],
            [
                "\u2581field",
                -9.216825485229492
            ],
            [
                "\u5974",
                -9.403471946716309
            ],
            [
                "\u2581Greek",
                -9.218199729919434
            ],
            [
                "\u2581Creator",
                -9.238152503967285
            ],
            [
                "\u2581perhaps",
                -9.239202499389648
            ],
            [
                "\u2581\u6bd4\u8f03",
                -9.26901912689209
            ],
            [
                "\u2581\u3044\u3044\u3048",
                -9.39620590209961
            ],
            [
                "\u2581material",
                -9.222310066223145
            ],
            [
                "\u2581similar",
                -9.238286018371582
            ],
            [
                "\u2581sort",
                -9.22081470489502
            ],
            [
                "\u2581\u6d77",
                -9.328474044799805
            ],
            [
                "\u2581\u96fb\u8a71",
                -9.367486000061035
            ],
            [
                "\u2581town",
                -9.22634220123291
            ],
            [
                "\u2581provide",
                -9.22751522064209
            ],
            [
                "\u2581safe",
                -9.244148254394531
            ],
            [
                "\u304a\u524d",
                -9.420557022094727
            ],
            [
                "\u2581\u5bb6\u5ead",
                -9.261459350585938
            ],
            [
                "\u306a\u3051\u308c\u3070",
                -9.401352882385254
            ],
            [
                "\u6b21",
                -9.395486831665039
            ],
            [
                "\u2581per",
                -9.3818941116333
            ],
            [
                "\u2581sleep",
                -9.246526718139648
            ],
            [
                "\u2581heavenly",
                -9.250821113586426
            ],
            [
                "\u2581\u5168\u4f53",
                -9.26815414428711
            ],
            [
                "\u2581y",
                -9.624682426452637
            ],
            [
                "\u2581moved",
                -9.25224494934082
            ],
            [
                "\u2581\u3057\u307e\u3044",
                -9.250117301940918
            ],
            [
                "\u2581\u5fa9\u6d3b",
                -9.2289457321167
            ],
            [
                "\u2581\u5831\u544a",
                -9.25675106048584
            ],
            [
                "\u2581written",
                -9.249990463256836
            ],
            [
                "\u2581likely",
                -9.260664939880371
            ],
            [
                "\u2581doctor",
                -9.232364654541016
            ],
            [
                "\u2581\u30c9\u30a4\u30c4",
                -9.285079956054688
            ],
            [
                "\u5171",
                -9.396438598632812
            ],
            [
                "\u6709",
                -9.406667709350586
            ],
            [
                "\u2581hour",
                -9.23347282409668
            ],
            [
                "ame",
                -9.452008247375488
            ],
            [
                "\u5c45",
                -9.418042182922363
            ],
            [
                "\u2581company",
                -9.253511428833008
            ],
            [
                "\u2581Such",
                -9.255655288696289
            ],
            [
                "\u3068\u3066\u3082",
                -9.43156623840332
            ],
            [
                "\u2581\u304a\u91d1",
                -9.282866477966309
            ],
            [
                "\u2581sun",
                -9.260550498962402
            ],
            [
                "\u3059\u308b\u3053\u3068",
                -9.412444114685059
            ],
            [
                "\u2581\u611f",
                -9.244866371154785
            ],
            [
                "\u2581\u6614",
                -9.302718162536621
            ],
            [
                "\u3059\u308b\u8005",
                -9.442183494567871
            ],
            [
                "\u7121",
                -9.410715103149414
            ],
            [
                "\u2581\u7279\u5225",
                -9.279738426208496
            ],
            [
                "\u2581\u3059\u3067\u306b",
                -9.265381813049316
            ],
            [
                "\u2581evil",
                -9.261662483215332
            ],
            [
                "\u6b32\u3057\u3044",
                -9.429832458496094
            ],
            [
                "\u2581\u624b\u7d19",
                -9.171638488769531
            ],
            [
                "\u30bd\u30f3",
                -9.49244499206543
            ],
            [
                "\u2581music",
                -9.258720397949219
            ],
            [
                "\u30de",
                -9.549896240234375
            ],
            [
                "\u5185",
                -9.388602256774902
            ],
            [
                "\u2581clean",
                -9.258341789245605
            ],
            [
                "<",
                -9.364592552185059
            ],
            [
                "\u6b8b",
                -9.455463409423828
            ],
            [
                "\u898b\u3048",
                -9.41899585723877
            ],
            [
                "\u2581matters",
                -9.31344985961914
            ],
            [
                "\u2581send",
                -9.243352890014648
            ],
            [
                "\u30a8\u30db\u30d0",
                -9.217350006103516
            ],
            [
                "\u611b",
                -9.45970344543457
            ],
            [
                "\u2581test",
                -9.2606201171875
            ],
            [
                "\u305d\u3053",
                -9.416061401367188
            ],
            [
                "\u2581showed",
                -9.273300170898438
            ],
            [
                "\u2581effect",
                -9.250469207763672
            ],
            [
                "\u2581Great",
                -9.269597053527832
            ],
            [
                "\u2581reports",
                -9.290833473205566
            ],
            [
                "\u4fe1\u4ef0",
                -9.40426254272461
            ],
            [
                "\u52d9",
                -9.355999946594238
            ],
            [
                "\u2581\u30ae\u30ea\u30b7\u30e3",
                -9.226322174072266
            ],
            [
                "\u2581daughter",
                -9.255240440368652
            ],
            [
                "el",
                -9.66254711151123
            ],
            [
                "\u2581\u30ad\u30ed",
                -9.322351455688477
            ],
            [
                "\u2581several",
                -9.27412223815918
            ],
            [
                "Laughter",
                -9.275337219238281
            ],
            [
                "\u2581meetings",
                -9.296648979187012
            ],
            [
                "\u2581moment",
                -9.259438514709473
            ],
            [
                "\u2581\u96e2\u308c",
                -9.289291381835938
            ],
            [
                "\u2581\u8b66\u5bdf",
                -9.388627052307129
            ],
            [
                "\u2581\u8b66\u544a",
                -9.257713317871094
            ],
            [
                "\u2581break",
                -9.25993537902832
            ],
            [
                "\u69d8",
                -9.417794227600098
            ],
            [
                "\u2581tree",
                -9.263357162475586
            ],
            [
                "\u2581changed",
                -9.282421112060547
            ],
            [
                "\u2581\u3042\u308d",
                -9.213936805725098
            ],
            [
                "\u2581wicked",
                -9.285357475280762
            ],
            [
                "\u2581based",
                -9.282902717590332
            ],
            [
                "\u258131",
                -9.59443187713623
            ],
            [
                "\u2581%1",
                -9.2738676071167
            ],
            [
                "\u2581held",
                -9.286789894104004
            ],
            [
                "\u258127",
                -9.58108139038086
            ],
            [
                "\u2581taught",
                -9.286503791809082
            ],
            [
                "\u3059\u308c\u3070",
                -9.466140747070312
            ],
            [
                "\u2581top",
                -9.305248260498047
            ],
            [
                "\u901f",
                -9.388333320617676
            ],
            [
                "\u2581\u8a18\u9332",
                -9.285468101501465
            ],
            [
                "\u2581\u7269\u8cea",
                -9.260575294494629
            ],
            [
                "\u5929",
                -9.40510082244873
            ],
            [
                "\u2581students",
                -9.30053997039795
            ],
            [
                "\u2581\u9055\u3044",
                -9.296858787536621
            ],
            [
                "\u2581\u81ea\u7136",
                -9.305578231811523
            ],
            [
                "\u3059\u304b",
                -9.427903175354004
            ],
            [
                "\u2581truly",
                -9.291764259338379
            ],
            [
                "K",
                -9.990569114685059
            ],
            [
                "\u2581false",
                -9.291460037231445
            ],
            [
                "\u2581sign",
                -9.269204139709473
            ],
            [
                "\u2581shit",
                -9.292329788208008
[...]
